[PAD]
[UNK]
[CLS]
[SEP]
[MASK]
[رابط]
[بريد]
[مستخدم]
!
"
#
$
%
'
(
)
*
+
,
-
.
0
1
2
3
4
5
6
7
8
9
:
;
<
=
>
?
@
A
B
C
D
E
F
G
H
I
J
K
L
M
N
O
P
Q
R
S
T
U
V
W
X
Y
Z
[
\
]
^
_
`
a
b
c
d
e
f
g
h
i
j
k
l
m
n
o
p
q
r
s
t
u
v
w
x
y
z
{
|
}
~
«
·
»
،
؛
؟
ء
آ
أ
ؤ
إ
ئ
ا
ب
ة
ت
ث
ج
ح
خ
د
ذ
ر
ز
س
ش
ص
ض
ط
ظ
ع
غ
ف
ق
ك
ل
م
ن
ه
و
ى
ي
ٓ
ٔ
ٕ
ٖ
ٗ
ٙ
ٚ
ٜ
ٝ
ٞ
٠
١
٢
٣
٤
٥
٦
٧
٨
٩
٪
٫
٬
ٱ
ٲ
ٳ
ٴ
ۚ
–
—
‘
’
“
”
…
##a
##p
##n
##d
##ا
##ل
##ر
##ج
##و
##ن
##7
##0
##1
##4
##8
##ط
##ي
##ح
##ه
##د
##ة
##ف
##ق
##خ
##م
##f
##r
##i
##c
##ص
##غ
##ش
##ك
##h
##g
##ز
##س
##6
##5
##9
##e
##u
##o
##l
##t
##q
##s
##ء
##ب
##j
##3
##ت
##ى
##أ
##ظ
##ع
##ئ
##2
##ض
##v
##ث
##ذ
##V
##X
##M
##T
##S
##F
##I
##L
##O
##A
##b
##m
##C
##Z
##إ
##y
##R
##E
##ؤ
##k
##آ
##N
##H
##D
##x
##w
##G
##z
##J
##B
##ٕ
##U
##Y
##K
##P
##W
##Q
##٠
##٩
##٣
##٥
##٨
##٦
##ٔ
##٢
##٤
##ٲ
##٧
##ٱ
##١
##ٳ
##ٓ
##ٗ
##ٙ
##ٚ
##ٖ
##ٞ
##ٜ
##ٝ
ال
##ال
##ية
الم
##ات
##ان
##ار
في
من
##ين
##ام
##لى
##ها
##ير
وال
الت
##ول
##اد
##را
الع
##ري
##ون
الأ
##ما
##ست
على
##اب
##نا
##لا
##لي
##ور
لل
##وا
أن
الس
##يا
##يد
الا
##هم
الح
ان
##عد
الق
بال
##وم
الد
##ائ
##اء
الج
الش
##رب
##يل
##اف
الب
عن
##لك
مع
##ود
##رة
الف
##يس
##عة
إلى
##من
##حد
##رك
##قد
الن
وت
هذ
##مة
الإ
##قة
##مل
##اع
##وق
وأ
الذ
التي
الخ
##سب
##تم
الك
##يم
##رو
##لة
##عل
الص
فى
##بر
##ارة
##في
##بي
لا
##مد
الو
ما
##بل
##حت
الر
##قي
##هد
##بد
الى
مح
الل
##ته
وا
##سي
لم
##وي
##جل
##كن
##لم
##صر
##با
##يع
وق
##ئيس
##لال
كان
##فا
##مر
##ني
##تي
##سم
وم
الذي
المت
الث
##حة
##سا
است
##اني
الط
بين
هذا
##كر
##خر
##جم
##سة
##صل
أو
##رف
##عب
##عت
##كل
##قت
بعد
##عا
##يف
##يات
هذه
##شار
##هر
##رض
##سل
##نت
وه
##اض
##دي
كل
##أن
أم
##كت
بن
##وب
##دا
##نة
##جه
والم
##ذا
العام
##دم
##اص
##ولة
##طة
##يرة
إن
##ديد
##رت
##راء
##زي
##لف
##عم
##قا
##ادة
علي
##انية
الي
##وض
##جا
مد
وب
خلال
##وس
##بار
وك
##ريق
##شر
##كون
مت
##الم
20
عبد
يت
لت
##بن
##عض
وي
##قل
##وف
##وع
##بة
##انت
تم
##در
عام
##وج
##الي
##وز
##يث
##خل
##ورة
##دة
##طن
##طل
تع
والت
##ثر
الأم
بم
##ركة
##خت
##ارات
مش
المح
##سية
تح
##وات
##جلس
##قر
المن
##اري
سي
##رح
##ئة
وز
##خص
كما
##رق
بل
رئيس
##تها
##وري
##وى
##رائ
مس
##دد
##ند
##الة
أي
وع
##عية
##اج
ذلك
##ضاف
للم
العرب
##وية
##فت
أك
وقال
##اح
حيث
##وت
##كوم
##ذلك
##سط
##الية
##عي
بت
الغ
اله
محمد
هو
##عود
بد
##ثل
مست
##فر
تت
##ادي
المد
المست
##كم
##فس
له
تن
الاست
جم
##حدة
قبل
##ضا
قد
بر
##تى
الدول
اليوم
##ليم
بح
المس
##طقة
ول
##كي
##وان
##ينة
وح
وج
##قب
وإ
العالم
المع
مؤ
##زة
ومن
الجم
##ناء
با
ون
##سبة
الات
عبدال
##وة
##لب
الام
هي
بش
##جت
الآ
##سرائ
##أس
يع
##فة
يم
##يت
ام
##قات
المش
الله
##يرا
الز
غير
##صاد
##جة
##ابة
الرئيس
حتى
السيا
ست
##فض
##حا
وفي
##وار
ولا
##قط
19
##رد
##مو
وس
##قدم
بعض
##ثة
##يان
##كة
##جال
لي
##فع
##نية
تش
كانت
##ركز
به
تق
ات
أنه
هنا
##يين
النا
البل
##اصة
##عات
عند
##حاد
أس
##كومة
ملي
##سلام
##بت
##له
أب
##خرى
العمل
##كد
للت
##رات
##قيق
##صف
يق
الانت
##كان
##جد
##ارج
##امل
##ورية
##افة
مجلس
##جتما
##يز
وف
##طر
##راق
##صب
دول
بأن
الوز
##حر
##حمد
##رن
##سات
كب
##قبل
##واق
##ابات
لكن
عمل
##ضع
##لام
##وك
##دارة
##طال
##يب
انت
المؤ
الماض
##يش
##افظ
##ولا
##حو
وهو
##فاع
##ولى
عدد
200
##اه
وقد
قال
##بية
##به
##جنة
##ديدة
يوم
##حي
##اة
##قاء
##انون
فيها
##كية
المص
بالم
قر
الري
حس
الان
##لاح
العربية
##يج
عم
##اخل
##صة
##عيد
##اط
هناك
تأ
##طاع
##صد
##عمال
التى
مصر
##از
نظ
##ارية
##إن
##سطين
الض
##لسطين
منذ
حول
##ويت
##ثير
المر
ين
مص
لأ
##بات
##دى
والأ
##حدث
سب
##وقع
ولك
##سرائيل
الأول
##امج
مق
لن
بأ
##ذه
بها
ثم
##وص
##قى
##لت
فت
السعود
المنا
##هما
الأس
##روع
##بنان
ور
تس
خط
تد
الساب
201
##زب
يج
##وعة
##ائل
مر
##شف
التع
بالت
##زيز
##راج
لح
##كا
##راف
ولكن
المتحدة
تص
التن
##رى
##ؤول
أكثر
##امة
سن
##اريخ
الصح
الموا
المم
الذين
يح
##فاق
##طف
##ختلف
##يلة
ود
##بع
لأن
عليه
نفس
مثل
##سبب
دون
##ضر
يمكن
الرياض
##خب
اللا
##جتم
##ينا
العم
##ارس
##يو
لها
يست
حق
يكون
الحكومة
انه
##علام
##قتصاد
##صول
او
##الات
##طار
##ثم
اي
##واء
##انب
المو
##هل
وزير
فيه
##كتور
اعت
جميع
##باب
وش
أحد
##ركات
لبنان
فر
الحر
##وط
##غير
##ئا
الوطن
تحت
##وير
والع
أمس
التح
تج
##مين
##فل
العامة
##غم
مو
مبار
##00
##ظر
##هدف
##لاق
يتم
##ساعد
وذلك
##نى
##ربية
##ظم
##برا
##لاء
##ضة
##يخ
##لاف
وان
تط
مليون
الاتحاد
الوق
أمام
موا
##ريد
بإ
##فيذ
##امعة
##خط
وكان
وأن
يد
##عاون
آخر
##ودة
حد
##رج
لإ
##ضي
##الح
تلك
##بط
##وقف
والا
##حث
##يران
##ذكر
الدولة
الأمير
السل
##كرة
##الت
بشكل
إلا
##ضم
##عر
##لاث
اللبن
##جموعة
##ضافة
الأمن
##عار
الرا
التج
##اته
نق
##جر
منها
##جتمع
##سان
المنت
الدكتور
##دية
الماضي
##بلغ
##لية
##يه
##وائ
##اس
##اش
المنطقة
##خابات
الأخ
##ورو
الاجتما
المصر
وزارة
##يئة
يش
##وال
بط
##يفة
##يلي
للا
فإن
الإن
##جن
الجن
الشعب
احت
والد
##خد
##ائية
عليها
الخارج
ولي
وهي
القر
##يط
##زم
الفلسطين
##عى
مم
وأضاف
##ساء
##ارت
##جراء
أول
##مية
##ماء
##شاركة
##ليات
حال
الفريق
##كمة
##باد
كت
جن
##لكة
شخص
##عداد
فيما
##مال
##زمة
قي
##يدة
##وح
المجلس
واست
أش
سيا
##كس
الشر
##انيا
جه
##افظة
##فضل
مدير
أيضا
##داء
بع
أخرى
##ظمة
##خدم
##واب
خاصة
##ظام
##كري
نت
الذى
مما
الملك
تست
العراق
ضد
##ظيم
سل
أع
إلي
ارت
عبدالله
##فق
##اما
##طني
##اق
##ريب
##ليل
##ابل
##أة
##وريا
تر
بسبب
زي
منطقة
##يري
الفت
عدم
عبر
قائ
ليس
##خذ
##كثر
##عادة
دولار
والتي
##جهة
##صح
شركة
الإسلام
##ربع
##زل
للأ
صح
##تمر
المبار
تكون
##شرة
##غي
##نائ
##ضية
##جان
داخل
أحمد
وخ
الكويت
##سيا
##شت
##حن
نحو
##اعت
الوقت
##لق
دور
الاحت
##كو
عندما
##سكر
فقط
والإ
##سر
الشيخ
##حات
السعودية
الثاني
##علن
الأولى
العلا
##جز
فقد
منت
##اذ
الآن
##ومات
مدينة
##ياة
حين
ولم
نها
##يال
وما
قام
10
##اعة
العق
##رفة
##قديم
البر
##همة
وجود
##عضاء
##الد
##ضاء
##قال
##قيقة
##عزيز
##سين
##غة
أبو
##سن
##قاف
فريق
بما
##اهرة
أما
##راك
المركز
الوزراء
##وما
والح
##سبوع
الاقتصاد
##صبح
المه
بق
اللجنة
الشرق
##اتها
أكد
##فريق
إذا
##طي
##طالب
الدين
والذ
##ياه
والن
##شارك
##نان
##كتب
##ولايات
تف
أق
للح
##واقع
##لاثة
##ابع
الوطني
##ادر
##زيد
لاع
بالإ
وص
لد
##وه
##ريط
##زا
##راض
بالن
##ريف
14
15
##طق
الأمري
السابق
جديدة
الدولية
العربي
##ملة
##هور
##اث
##ليج
مختلف
##ابعة
فه
الخارجية
##قاط
##وسط
القانون
الخط
عاما
بي
##حل
##رحلة
##ائر
##روف
كث
##أت
تو
ألف
##نين
طريق
المخ
الجز
##حية
المملكة
سنة
##ابية
الار
12
يس
##جمع
تب
##شي
##طية
عشر
الشركة
##وضوع
##تين
##ضور
المقبل
إدارة
##علم
##ويل
##هاب
كبير
المجتمع
##طلاق
وعلى
الأمر
الدولي
##خدام
لدى
عملية
الجه
##طلق
ضمن
##وني
##مان
##طات
##ئاسة
والش
اس
##وضح
اللاعب
المواطن
الشباب
السياسية
أجل
##راسة
##ادات
أح
##ياء
وقت
##ومة
وأكد
المالية
أث
الرو
مجال
##يدا
كبيرة
تل
للع
بص
مركز
اخت
الثال
##اهر
التد
للش
##غل
أد
مخ
يجب
مستوى
عقد
المق
##حق
بج
الإم
عل
لجنة
الحد
حل
##جاز
أهم
محا
القي
ترك
الداخل
##هيم
##قرار
##احب
جاء
##تر
##ائرة
وهذا
شي
##واصل
الخاصة
##ظهر
النف
يؤ
##طب
مل
وعد
أنها
##جات
##اقة
طال
منه
قرار
##زال
##صار
##بدأ
البلاد
اب
##طفال
شر
##تيجة
وضع
اجتما
البن
##ربة
بو
##عتبر
##وء
الولايات
نش
القطاع
##يني
البلد
جانب
واحد
##سى
##صوص
الوطنية
العديد
امس
وتم
الجيش
##جاه
علا
##طلب
لو
مشيرا
سنوات
##سرائيلي
در
صف
الثانية
##اهد
##نامج
##سسة
##جوم
قدم
البحر
بلغ
القاد
##اعد
##شة
لما
##كات
##هداف
التعليم
##سسات
الجديد
حر
##تهم
نفسه
نف
الانتخابات
لش
عبدالعزيز
##بير
جز
حالة
##هتم
##داد
مجموعة
مشروع
##ائب
حزب
##شح
للد
جديد
##ئي
التص
##الى
البط
##وبة
السي
النظام
بيان
##ادث
##ائق
##امي
بدا
وكانت
ومع
الفرن
الأح
##قول
العد
##اك
##مس
##مي
التأ
الإعلام
الامير
التق
##قرير
##انة
مسؤول
##هن
لهم
11
##ليا
اللبناني
الحرب
لع
الوا
شهر
الخليج
##مود
##سلحة
##ضمن
دولة
##نف
الكت
عرض
الاول
##صادر
##ؤون
السف
##ائج
إسرائيل
عض
مج
العالمية
##وبية
قطاع
##علان
##الف
الفترة
الكثير
وأشار
##جيل
##شاريع
المباراة
التش
عد
هل
فع
لدي
الفر
##فظ
اع
العلم
الثلاث
##يون
##نع
25
تقدم
الداخلية
##علق
والق
##ضح
##زام
18
هد
##يك
##لات
المغ
##ابت
سوريا
تحقيق
نقطة
حسن
عدة
##باح
##دمات
##ولات
##لمان
وغير
بار
الأن
##هورية
بير
##باط
المصري
السن
نا
الناس
التعاون
والس
المسؤول
قانون
##كلة
##ئية
##شاء
المعل
تاريخ
##ارب
النها
##وجد
##خرج
باسم
فال
##براهيم
##هاز
الدفاع
نهاية
##ادل
أص
الظ
الجديدة
##قم
##ديث
ذات
##وث
##تل
أف
##خول
القد
أج
##قافة
مك
وجه
بك
مليار
ريال
مساء
أل
شار
وإن
##جب
صاحب
##كيل
توا
##ورا
والذي
تك
المصرية
القدم
30
السلام
تعد
جدا
##جراءات
##غيير
الاخ
باست
##عاية
##رس
الخم
##طان
##قية
الترك
##جاح
ذكر
بينما
##هير
##ثمار
##املة
ثلاثة
مرة
خالد
الطبي
خارج
13
##مت
تحد
الحكوم
##عين
##ريقة
الاد
##لين
##سكرية
##ضايا
##ثنين
##شفى
##هرب
##ادية
##جاوز
المعار
حما
المدينة
الشرطة
طلب
وقالت
ويت
ساب
برنامج
والف
##انى
الشركات
##ظاهر
##احة
الاس
##لاب
##جهزة
احد
سم
##فاء
يف
##كار
التط
عمر
##ئات
السوق
بالأ
##يدي
مبا
النائ
وبعد
أغ
وسي
نسبة
للن
الهيئة
اللبنانية
سمو
##نتاج
##يار
أعمال
حاليا
تخ
##مدة
نقل
أمن
اللقاء
كم
جني
السوري
لكل
##دمة
بنسبة
حركة
أخ
##اخ
##فية
##صال
يقول
رغم
##ساس
##صابة
الحياة
لان
##راع
والث
اللي
المنتخب
المجال
كيف
بان
مؤك
التو
الدور
عق
القاهرة
السياسي
رس
اخ
##ريم
الأخيرة
للإ
بناء
مه
الرسم
والب
إنه
والص
الآخر
الدست
##غا
##ربي
##رام
وصل
مقابل
الصنا
أكبر
الحزب
وليس
##قامة
اقت
جل
النائب
وث
##جي
##قليم
##ادت
نائب
قوات
بات
القوات
القب
بكل
الاقت
##شرين
سر
موقع
199
كافة
##طيع
16
لاعب
##ماع
##ياب
لمن
واحدة
##ويات
وكذلك
##مرار
الشخص
مكان
عب
##راب
الديم
##خاص
القرار
تنفيذ
##تا
شهد
##اصمة
##هرجان
##وضع
علم
مباراة
يحت
الاعت
تقديم
رم
دعم
الجما
وبين
##سرائيلية
##ونية
نظام
رح
بقي
فترة
لق
ضر
##فاوض
المحت
##اعات
##راتيج
تؤ
المرحلة
##اجة
سعود
صالح
##ستان
تصري
رسم
نادي
الأحد
مرت
التس
##قق
دم
##خصص
بس
بغ
الشم
ظل
ويع
وسط
##ائد
الخاص
##بيق
##ونة
##صور
الاقتصادية
الإمارات
حسين
##ناول
اسم
بف
17
##شد
هيئة
##شن
ني
##ناق
السعودي
##وفير
##أي
##اده
لاست
المشروع
مف
##ذر
بداية
للق
رفض
##سباب
حم
لس
التنفيذ
##جار
الفلسطينية
##حقيق
لك
بشأن
عالم
آل
الجامعة
المواطنين
حقوق
اح
##ادى
هم
##جميع
##رم
جامعة
##صلاح
لب
##شق
استخدام
##طلا
منهم
##عرض
##راجع
##ائزة
الأعمال
##هتمام
##روج
##عبة
والاست
فض
إذ
دين
ملا
بالنسبة
المط
##رها
المسلم
المقب
يب
حسب
الجمعية
##ؤلاء
##ولي
##يرية
##تيار
##صالات
الحكم
الحالي
رأس
أيام
##عو
##فراد
يأ
اش
السو
##فتت
##ربعة
صد
النق
##هاد
##ناصر
تعرض
##هي
المشت
الخام
سعد
الحق
أفضل
انها
الشع
##ائي
##ورات
##برز
الأمريكية
والخ
يا
الإسلامية
##قرا
جد
##باء
اد
فرن
الوزارة
##علنت
تنظيم
##صحاب
##ظف
المؤتمر
نج
وأوضح
نتيجة
العلاقات
الأش
مب
##اليات
مؤكدا
لر
التاريخ
خصوص
احمد
لقد
بالإضافة
##طع
النادي
جهة
فل
##قتل
##مبر
سليم
إم
ارتفاع
##اي
الثالث
##منطقة
رجال
الجميع
ثلاث
##يام
اليمن
##تمد
##يص
زيادة
السيد
الشهر
يقوم
الجمعة
نحن
كون
وتن
##شل
والج
الماضية
فهد
##صيل
عنه
مبارك
##اتهم
##عليم
##ضيف
السلطة
##ولوج
مساعد
الاجتماعية
قدر
##واج
##ليف
امام
##كام
##ناة
##وجود
##وسف
##رفع
##وروبي
أمير
أثناء
الإدارة
فلسطين
المل
دائ
##افي
##بدو
##هود
يون
##عوة
سواء
الإنسان
حصل
أعضاء
رب
لقاء
الشرقية
##برى
مث
##راقي
الخميس
##سكري
الاتفاق
##هب
أعلن
المشاركة
المرأة
الثقاف
مسا
المدر
##قبال
قب
ليست
الدم
##راكز
الجمهورية
الأه
جنوب
الأخرى
الوضع
ير
طبي
دبي
وط
حا
بيروت
لص
نس
عمليات
الاسلام
الصحة
جان
##ندوق
البريط
معل
بلا
سجل
السبت
##قرر
المعلومات
يل
الموسم
ضرورة
المقا
##هيل
جما
##صرف
المقبلة
أى
تقوم
الأد
يكن
##صادي
##يق
لكرة
كأس
أر
حكومة
تتم
العاصمة
##عيش
الحدود
اكثر
واعت
ينا
##صلحة
اجتماع
الكبير
فأ
لهذا
المحكمة
##اعر
##زن
الحل
##غب
##فيق
للس
##قام
نوع
السورية
وو
الأسبوع
المناطق
##حب
##ساسية
##ابي
سعيد
إد
##وغ
وض
##طلع
رؤ
يعد
الأرض
##كبر
المال
##ظة
##اعدة
تغ
الزي
منا
##وبر
بالع
السود
مصادر
بهدف
الساعة
##ابه
محمود
##لبية
##فى
فتح
خصوصا
فان
شيء
المصرى
##رية
بدأت
##روض
خم
##فيات
بأنه
##ؤال
##رفض
##فقة
نشر
##هاء
اللاعبين
50
اذا
وذكر
هؤلاء
يخ
عضو
موس
##يرات
وتع
المستقبل
##وروبا
قص
##ينية
الزرا
جنيه
##ائف
إضافة
البي
الثلاثاء
##راح
معه
لاف
معد
قضية
وتش
##ناعة
##يزة
لنا
بعيد
طالب
##قص
شب
##غط
الوزير
حو
##خرا
وبالت
ومد
سيكون
بدأ
قتل
##ضان
##دت
##وفر
تطوير
البعض
الإخ
اتفاق
##عتقد
##ثار
الشريف
##بنى
عنها
غزة
محافظة
المسا
فن
حمد
##هام
##وزيع
##ادرة
سين
##ورى
رقم
##اكل
المحلية
24
أت
##طاء
مرا
المياه
##ارق
للاست
هدف
بلد
الثورة
##حص
المدير
لمدة
##ارع
بالد
##حافظة
صحيفة
شمال
##كيد
##طوير
القائ
الطريق
##حدى
الاثنين
حدث
الخدمات
توق
البطولة
##ابا
الني
##سام
أمر
مقر
وحد
دي
وتت
الإس
ايضا
##وله
للر
##هار
خلف
ظهر
سوق
لذلك
معظم
العمر
نص
##عاد
بطولة
ابن
##يدان
##ريبا
##ابط
وكل
##سانية
##ادم
المجموعة
##زية
واس
كثيرا
الرح
النو
سوف
##عيم
التربية
السمو
صباح
الجام
مؤتمر
التر
الدوري
النظر
##وجيه
سف
البيان
الجانب
##ائلة
اكت
المف
يوسف
العل
بالح
##امن
##فاظ
الأربع
البرن
22
البحث
الصحية
##ثمر
وهنا
##اتب
##ريات
شع
رفع
إليه
الأع
##راسات
مصدر
##امية
للف
تمت
##ابقة
##ويا
العسكرية
##ميل
المز
عشرة
الأميركية
##ندس
بالف
بالق
لهذه
واضاف
الجل
##ظبي
البرنامج
21
##انا
الحوار
يص
أهمية
زوج
مكتب
المب
##ريمة
##وبات
##غيرة
##ابر
قائلا
العن
النفط
الاولى
شركات
##حتى
البد
##مدينة
مز
لج
العراقي
##قه
العملية
##لفزي
موضوع
##طا
##قدر
##ويتي
المسلمين
بهذا
العليا
القص
مار
شعب
نتائج
فوز
##منت
أنا
إطار
##ستر
##قدمة
##تنا
للج
بيت
اغ
يعمل
الاجتماع
مض
##ائع
وتح
الحكومية
حيات
وست
المعارضة
رأ
##اند
##اطق
##يره
الموضوع
##جموع
اتحاد
الفرنسي
##شنطن
المرت
الجهات
وسائل
طب
##ويلة
يعرف
##يته
##فد
كذلك
آلاف
حكم
##فريقيا
مدى
##راضي
وتأ
كلمة
قامت
وحتى
##صبحت
روس
والك
حرب
الحم
السلطات
العالمي
الانتخ
##وقرا
##ونس
الألم
كرة
إس
المتهم
##راز
والمت
بالس
الإد
##ناف
##ذار
جزء
##أسيس
##حيح
أرض
التنمية
23
يريد
كانوا
الفوز
ومت
##الغ
##حرير
##ندية
##سيق
البنك
يذكر
موقف
يعتبر
وين
بب
##بيع
تقرير
##افية
##خاذ
حجم
كبيرا
##جاج
قيمة
معت
##لاك
يناير
مناطق
##سلسل
##بعة
وعدم
ينت
وفق
وعن
##وزارة
##فاوضات
امت
##ثلة
فوق
وهم
##ئول
إل
تحدث
التف
الكهرب
الوح
يسم
##واقف
القضية
والر
الأطفال
المعا
##رنت
الفلسطيني
المج
##راتيجية
##راث
يعني
المدني
##وبي
القوم
نفسها
وآ
إيران
اشت
##ماية
##بيا
الأمنية
مختلفة
بخ
المث
عقب
##باس
##وروبية
##اتحاد
الفنان
الأمم
##ورد
القضاء
##ذب
اخرى
##ارنة
واف
##واجه
##عون
منظمة
##قف
إعادة
خاص
يك
##ائدة
بلغت
بعدما
##وانين
الكرة
قسم
المطل
الواقع
##ثناء
##نائية
الحريري
وغ
بهذه
الغربية
##افحة
اص
الطاقة
##تماد
دفع
##ابد
##وحة
إي
الحا
ادارة
##صلة
2010
السابقة
أسعار
أبوظبي
سيتم
سليمان
##بادرة
قالت
التجارية
##اضي
##ذك
لأنه
مارس
الاقتصادي
الرس
##زين
##ائه
أمري
أعلنت
المؤسسات
40
وبال
##كال
##رز
يتعلق
المختلف
الأب
##ستاذ
ألم
القوى
إبراهيم
جعل
##ارد
الحركة
شكل
الحي
##مائة
التم
داع
##كانية
الأزمة
المساعد
دار
الأميركي
بالش
##ندا
عليهم
ناصر
تشكيل
##ريل
100
##روح
##امت
##رسة
##ريدة
حديث
رد
اسرائيل
واشنطن
##خة
فهو
الرغم
الثالثة
الشه
السفير
بور
التحقيق
##ظيف
##زاب
الملكي
الدستور
واع
الأوسط
الإسرائيلي
المحافظة
لتن
منتخب
##وجه
##وام
واض
دائما
##بادل
عبدالرح
بذلك
الفني
مباشرة
##يلم
##صاص
##شطة
لف
تطبيق
الأف
محد
وطن
##رياض
##يراني
##شارة
فعل
198
ملايين
سوى
العزيز
##مرت
##رفين
المختلفة
لكنه
الرب
##همية
المرك
مناف
يقدم
أشهر
مغ
مؤخرا
##ارى
مؤسسة
المحا
اول
واق
شك
أصبح
الاحتلال
فرصة
26
سا
##لائ
المبا
##ظار
تمكن
##طراف
افتت
##جرة
##امين
جو
الفنية
المستوى
لعد
##فتح
تركيا
##جع
##ألة
موض
جمعية
الأربعاء
##هاجم
السنة
وفقا
اما
شأن
مواجهة
الهلال
كتب
الحديث
يوجد
##فذ
مشت
اللواء
##ارته
الإسرائيلية
الدورة
مكت
النواب
إخ
##روط
الاح
سير
وفى
الفن
الهدف
##روب
##بلوما
الحرمين
المنظمة
محافظ
الطلاب
##كب
زيارة
##افع
سلام
المشاريع
الياب
##واع
##قطاع
##رهاب
الإخوان
مهمة
فرنسا
##طفى
كنت
وصف
السابع
إحدى
السيارات
خلالها
دمشق
##بارات
الثقافة
وير
خطة
جهود
##صدار
##وره
التقرير
وانت
دخل
تحمل
الديمقرا
##زيادة
خدمة
تصل
الاعلام
##حان
البشر
27
البرلمان
الاجتماعي
المؤسسة
تكن
تعمل
2011
##لكتر
كي
وغيرها
انتها
محاولة
##ائة
##ريض
برئاسة
##خصصة
##عامل
كال
الجاري
عبدالرحمن
تز
##اديم
مرحلة
سلطان
ويم
وكالة
##ندي
المهندس
##ورج
الجهاز
فا
رمضان
السين
الأمريكي
##اية
كلم
##كين
سبيل
نصف
##فاة
الصف
##حاول
نع
أقل
كر
المرض
حمل
##منى
والتن
الحصول
28
التعامل
عين
##ريع
##اتي
دراسة
والط
عز
##يقة
بحث
خمسة
الأخير
المدرب
بث
##ليق
##صيد
##داول
قوة
المخت
##كى
الفرنسية
والتعليم
الرسمية
بينهم
القادم
##احية
يمثل
روسيا
الاستثمار
##جئ
وبالتالي
##قوم
انتخابات
قيام
سعر
الكتاب
تحر
##عاب
ورئيس
القرن
##غيل
##ارا
الساد
نقاط
##فادة
2008
مضي
الاخت
تفا
الكب
المرا
المئة
قل
اقتصاد
وراء
##قلت
سيد
الحالية
الاسرائيلي
2012
ند
باعت
##وعية
سيارة
اختيار
الكويتي
##ضائية
السب
##بيب
##رين
##ولت
الصين
وعند
الاميركية
##وارد
بدء
الموقع
إيج
##شاط
كتاب
##ساب
دخول
ساعة
الأوروبي
##ريعة
##وضاع
شه
العراقية
كثيرة
##ريبة
تماما
التجارة
##مار
##فال
الكبرى
اجل
استعداد
##ساسي
##قوق
##سح
المرشح
يصل
التابعة
##شا
المعت
الطب
##صاب
رجل
قائمة
مباريات
##وها
القادمة
الوسط
دوري
##اسم
نمو
##فاض
##أل
صورة
توفير
الغذ
عرف
##صام
سياسية
##اطر
الرياضية
سكان
الشريفين
حوالي
طويلة
##وين
أوروبا
##غال
يوما
إليها
مدرب
وبد
أهداف
الأج
بحسب
يحدث
حي
##سلة
الوحدة
##الجة
عددا
الدراسة
كامل
2009
تغيير
شباب
استمرار
عناصر
##قلال
##سك
المسؤولين
تحديد
##فعت
المسي
خادم
وحدة
تور
نوف
##جلي
وجاء
سموه
أصحاب
الهند
ريا
##رع
##حين
صوت
بالمائة
##بهة
##شراف
المحلي
درجة
السنوات
خل
تجاه
ونحن
تعزيز
##ريا
##خفض
المسلحة
شرق
فيصل
##هج
البلدية
تعتبر
حكوم
النيابة
مط
اف
فلا
المدارس
##وتر
تسم
##ذل
علينا
##خصوص
##ريس
الاستثم
197
كثير
الأمور
البلدين
الطبية
35
##ريك
إطلاق
##وجة
أنهم
وتس
##غان
إح
معلومات
حماس
##ميم
علاقة
باب
##وارع
مفت
لله
##مى
ابراهيم
غال
المحافظ
##ضى
خس
##شرات
##طالبة
يعود
الأرد
تصريح
##زع
والتى
##هديد
##ليلة
##ساد
ستكون
##وش
كيل
ربما
القضايا
النار
سالم
##ديثة
##قاعد
##راءة
##ويض
العنف
##مه
##تمبر
يول
وات
##ناسبة
##سد
##ظل
يحمل
المتم
بغداد
الاميركي
حملة
نسب
الأمين
##ماعيل
##علقة
الأيام
عهد
حدود
##يتها
حفل
وقع
معا
##كندر
##ذهب
##مع
المادة
نب
سبتمبر
##جين
نشاط
أبناء
##لفت
الأص
كار
##يبة
##حاء
للط
العب
انته
وهناك
بالا
النساء
##روس
السياسة
أكت
وقف
فاز
##ذة
##ياس
##ديمة
السر
جمع
الطائ
مشاركة
معرض
نظرا
مقارنة
الشعبية
يغ
جمال
##روعات
الطرق
صور
##راقبة
##نيا
وصول
##طنين
والاج
##رافق
صلاح
##وسي
##بيه
يبدو
ابت
حياة
وهذه
المك
والغ
ديس
بالك
الال
##جهات
##آت
2006
##فيد
##نب
الرابع
الاتصالات
محت
الصحيفة
##ولوجيا
مشكلة
##قيقية
##طور
هى
مصطفى
فضلا
والل
حضور
##طلاع
##جح
##شيد
الدعم
فيلم
تصريحات
المستشار
عيد
النس
##حديد
الدر
غدا
العسكري
##ليفة
##خيص
##غبة
##تع
##ورك
برامج
شرطة
##ضب
أدى
بري
##خدمة
ضبط
تمثل
##وجودة
العاملين
وعدد
طرح
تقد
الرق
الكبيرة
ويس
##جمالي
للب
محكمة
قطر
##واد
##الك
قناة
##جمات
بريط
منح
تناول
موعد
رسالة
المسرح
لموا
الكريم
الامر
مشاريع
##ندن
النمو
دع
مستشفى
##ضرورة
الجنوب
غياب
جانبه
الرجل
29
##خطط
##آن
ميل
أه
الخب
اج
مضيفا
##مرأة
##طى
##ارير
##منة
أوب
فرض
##ظمات
##غر
##وافق
##منع
الاشت
بالر
##اليا
الدقيقة
النقد
معار
مان
##يلات
الحرية
البيئة
النهائي
الفلسطينيين
##يسة
الامن
الرئيسية
خص
##حقا
حماية
البريطانية
تض
##ونا
قائد
##تما
الهجوم
القدس
إنها
مقتل
المواد
60
الشؤون
المقاومة
##وخ
التحرير
يعيش
بالج
التون
31
وتد
##راه
##حول
بدر
المنش
معها
196
أكتوبر
##كريم
الجد
##ابلة
##سون
##صدر
الادارة
##كيم
تجاوز
##ليب
لتحقيق
بحيث
##طباء
##عبير
بدون
##ياجات
##ساهم
الطال
مجد
يأتي
لماذا
الأغ
##خلص
##فيف
الها
شخصية
الطلب
كلية
أربعة
الفيلم
اللازمة
##حداث
##قترح
إنشاء
بدلا
##ايد
##تون
أمين
المتحدث
بوش
اعتبر
##قاذ
الفي
##قتها
##سبق
لخ
ديسمبر
للص
##واعد
خدمات
متن
2007
الجزائر
دعا
##لفزيون
##تيب
للخ
##ؤسسات
عنوان
##جنبية
الشعر
ولن
شخصا
سورية
تنت
##سلوب
فرص
المائة
##قيم
قيادة
##قوط
##راحة
بيع
##واس
##قاد
كش
المزيد
تدخل
##كمال
##ارقة
يستطيع
##براير
الصناعية
تشهد
حفظ
إجراء
قيم
نو
##ريح
مايو
الأز
الجولة
فهي
النت
حضر
أبرز
##فز
حب
##واز
النقل
##اتف
ولو
بينها
##واية
يونيو
##درات
##خدمات
الماضى
أزمة
بنك
المشكلة
وظ
##ومية
شارك
أعلى
فبراير
قاد
##ادق
##لبة
##رتها
الاع
جورج
الفق
##ذج
وتابع
##حمل
العلاقة
غرب
تراجع
الانتخابية
##حدد
##وقات
العلاج
الشخصية
الوصول
المدرسة
##لاعب
بحضور
كشف
سبب
باعتبار
أشار
بالل
ألا
واعتبر
الشمالية
اللغة
مي
المقرر
حقق
أصبحت
تدري
##هرة
##شاف
المفت
عباس
##كلفة
##كنية
##هلية
بصورة
العلمية
اعتبار
لافتا
##اشد
واله
##عاقد
المهرجان
دينار
أفراد
نوفمبر
منع
الإلكتر
جهاز
المعرض
ملعب
##خفاض
التنظيم
المالي
##مم
##انوية
القيادة
الخدمة
شبكة
##يانا
نجاح
##باق
الوفد
قضايا
سبق
القاعدة
##ملت
مخت
##بدال
##ريت
##50
والمست
القط
##كندرية
مرض
سابق
##ويد
القبض
جلسة
الاف
فهم
العودة
المشارك
لمع
##بيض
بلاده
عودة
##غاء
الرابعة
##ارتفاع
##ائم
##حقق
الخامسة
منصب
الديموقرا
الجنوبية
يجعل
##انس
لندن
بالتعاون
أداء
عاد
##جيع
فكرة
##واقعة
##احث
##طرة
جاءت
موضحا
##خم
السينما
##ائها
##وجب
ار
را
ملف
يؤكد
أبد
بأنها
يوليو
الشوط
الاسلامية
متر
المناسبة
ومح
لعب
مدرسة
البيت
##عمار
مهرجان
##بين
مهم
##منح
المعد
والسيا
##فيين
حز
إنتاج
قرب
##نوان
اند
ومحمد
##يرانية
ومست
تقول
##والى
الإسلامي
##رباح
##تهي
##عاء
الأعلى
##رائم
##جير
##شروع
نز
از
الرئا
##ضاع
##يانة
##هدد
الجزيرة
##مرة
##باك
الكويتية
##نيف
##حم
بول
الأكثر
وخاصة
الصحي
قوية
الرئاسة
2005
النتائج
الجهود
العمال
الشي
##وزير
##لاة
مصلحة
##قلة
مواقع
ياس
هام
##ئت
ثانية
##وسع
اتخاذ
إعلان
ضع
فك
##جون
ورب
ويست
##قيقات
الرياضي
الطفل
ألمانيا
جدة
الاخيرة
##كاتب
ابو
الموظف
يوميا
البناء
المشترك
حرص
سيت
المصادر
الأقل
شهدت
المصريين
##هادة
ورد
2013
الموقف
بني
لديها
توزيع
##حايا
##فعة
فما
مهما
##جابة
قرر
والعمل
الاش
انف
درهم
تشكل
التاس
خب
يحتاج
لإن
##قييم
##جلة
##طم
الإرهاب
##شكل
فعاليات
تحرير
الوحيد
##ثمرين
الغاز
ساعات
يشكل
##امنة
التنفيذي
جميعا
صدر
انتخ
بلاد
دائرة
والمد
##انع
يرت
وجد
بعنوان
سؤال
##هضة
قط
الحج
##فعيل
##ئلة
المكان
تمر
وإذا
وصلت
الور
##يسى
المستشفى
افتتاح
##خطيط
جائزة
سياسة
حساب
اكد
كن
حص
المصدر
الفائ
قت
المفاوضات
الحملة
##مبي
الأق
##اعي
وبر
##رسال
والمس
لات
النصر
##اخلي
باريس
الجلسة
التواصل
##قيب
العهد
##شاد
تأثير
##يسي
بالط
يبلغ
##ؤكد
الإنت
الثقافية
تعليم
ممثل
الأسد
##فاج
##وطن
البنوك
بنت
معهم
سيما
الأل
الحب
##يمان
##امه
دورة
##قليمية
الرأي
مطالب
ويقول
اهتمام
اذ
العين
زمن
وكيل
##سه
##ذية
بسي
وبح
عربية
حالات
##بطة
##ندق
المتعلقة
##انتخابات
##ساعدة
أحداث
التمو
مناق
انتهاء
البدا
القت
أسبوع
النص
القوة
الالت
جون
##امى
بمنطقة
بسر
الوطنى
الإنتاج
اللبنانيين
المتوقع
صفوف
##كذا
عالية
الكهرباء
ستة
##تش
##فو
وطالب
الغرب
##عددة
الأهلي
##سحاب
الأساسية
الفع
الحض
طن
ها
العدل
32
واحت
##هلك
##ثيل
القائمة
نست
##شى
موسى
##جازات
ممن
##طلقت
يزيد
بقيمة
للعمل
تشرين
الشارع
الرك
##طاق
##جمة
الجوية
مياه
يزال
##أى
##اربة
بأس
##تهما
ملك
السياحة
النز
مجموع
الدرا
خمس
اض
يؤدي
برو
مراكز
##لاحظ
##زايد
##ارف
ماذا
كام
المغرب
الحادث
الثلاثة
اضافة
كا
##ورها
السودان
الابت
الروسية
##غلال
مطل
وأع
رابط
##ناع
الظروف
الجمهور
العرض
يلت
##بى
##حاث
راشد
المدن
##قيقي
وأنه
ترا
الحقيقة
لأنها
كو
بمدينة
الفرق
بحق
تجربة
تونس
##ولية
##كير
##الا
والاجتما
ولاية
بهم
تضم
45
إقامة
امير
صندوق
##شية
الروسي
لكنها
وبلغ
كلا
##نتين
لكي
كبار
وبعض
توجه
##ثمان
##انيين
مستقبل
الشب
البرامج
الأوروبية
يز
الاسبوع
الاهتمام
##نيات
وشدد
للتن
السيارة
دقيقة
عادل
اث
المكتب
70
الست
تا
##بعد
##غوط
##غاية
أننا
##قين
ومنها
وزراء
مواطن
البحرين
##هران
القديمة
الساح
عامة
فرق
##عيين
التض
ومس
نظر
التفا
واكد
المعنية
مسرح
مون
##ناه
شيئا
أوباما
بلدية
##ويورك
الخبر
##تيال
منصور
صع
مطار
وفد
صنع
مالية
##شفيات
##سيم
الاب
العمليات
ليبيا
اللح
والان
غرفة
##هوم
##لل
اليون
مسل
أهل
ذاته
التقدم
الزمن
ناحية
##ونه
صفر
اليهود
الإجراءات
ته
لديه
تقريبا
وذكرت
التركي
الأسواق
##حف
بمع
لصالح
دا
وكيف
موسم
أولا
سلسلة
الرائ
التركية
صار
تواجه
قرارات
بتن
80
القيام
يرى
##ونغ
ممار
المض
##بقى
الأستاذ
الحفل
والعد
قلب
##الفة
وكأن
تسجيل
المركزي
التعد
##الث
البشرية
##يمة
##اضر
تزال
الإنسانية
بطريقة
القمة
##زيارة
##اعية
يحصل
##سس
لط
وأضافت
##er
القن
الأحداث
فريقه
##كاديم
أساس
##جري
##ترا
عسكرية
##قطع
الإرها
حوار
أفريقيا
المدنية
أسباب
علاقات
ايران
القانونية
واشار
الثقافي
##جهيز
الثقة
##فرد
آسيا
##عتها
سبأ
سهم
##امر
التقلي
بعدم
آخرين
ولفت
##غانستان
وأم
أجهزة
الآخرين
اليه
المتظاهر
##جئين
بريطانيا
منزل
يجري
##رابل
الحديثة
لبن
عديدة
مجرد
الصغيرة
مرشح
بعيدا
التغيير
التدري
طوال
الصحف
جيدة
##واة
يملك
##ضمان
بمحافظة
خليفة
البداية
##بلا
تعرف
##لافات
##ابيع
التخ
##ورت
أصد
ترت
الملف
##غلاق
التعليمية
صناعة
سلم
رئاسة
بالخ
##سطس
تعود
##فيه
##سباني
##جهود
تلقى
لقب
واضحة
التدريب
نصر
أكدت
##شط
الفكر
نه
الاسرائيلية
##ملية
الأراضي
##راجعة
##امات
ودعا
علما
السكان
##وائز
مرسى
المكر
المجالات
لدينا
قوله
الخامس
##كلف
مشاكل
سلمان
نور
لفت
##دخل
بنفس
##واف
النهائية
وتق
##قالة
اثر
##يح
##ريقي
وإنما
والمع
رويت
فمن
##نيين
أخذ
##ويق
وعندما
ايج
طائ
الرسمي
عا
##وصول
تأتي
##تام
الدينية
##وامل
##صري
ذكرت
##فسهم
##واريخ
جرى
الثامنة
بقيادة
سياسي
142
خير
##عودة
الإعلان
مسيرة
##واجد
محطة
الانسان
##روة
##ساط
النشاط
مؤسسات
##ولد
الألمانية
##نام
الرحمن
هجوم
درا
للك
للمرة
عما
تجمع
الأحمر
ولل
المهمة
##لاج
متم
انع
لوك
##قاش
لتح
التوق
الدراسات
تأسيس
الطائرة
بمن
ويد
نيويورك
حض
الأمة
##ودية
##فريقية
سيع
سنويا
بلدة
الرئيسي
الوك
وفر
تحقق
منتصف
الحقوق
أمل
أربع
استقبل
##ياز
المباريات
البحرية
90
الفساد
السبب
##ابين
##صابات
ولد
تبلغ
المشتركة
بعدها
##زمات
كنا
وأس
القول
قرية
إع
تبدأ
جماعة
زم
##فسة
العلمي
##ادثات
الفرصة
ينب
توجيه
##نافس
توجد
وأنا
الجماهير
الحالة
كانون
##ماح
الصيف
إجراءات
مأ
##يزانية
الصندوق
للمشاركة
المنافسة
تحتاج
##ولين
الواقعة
إعلام
البرا
##بطولة
##تمال
الكل
ثورة
الصورة
الأسرة
ورغم
##ديق
##وراق
صعيد
قاعدة
مسألة
الشاعر
بقية
ليت
مكافحة
وهى
##طاليا
اعمال
شكر
العقد
والمح
##صلت
مرور
الآسي
باك
##وسطة
العالي
2004
العض
الداخلي
التجاري
##ونها
##طلبات
##اضافة
##ملكة
الصباح
##ارك
تقل
زايد
الواحد
##وفا
خطوة
طريقة
لتس
36
##اره
والمن
مؤشر
يحي
الترب
##زق
أسهم
ولكنه
يمت
الفض
متابعة
##ثرة
##ائن
وليد
طر
##اقات
حاجة
جام
أشخاص
الزراعة
##غرب
زين
الأجهزة
للموا
سقوط
إعداد
##جارة
النوع
يقل
الباحث
194
بوت
##بادئ
بالمنطقة
سابقا
##شهد
السلم
المقد
الكاتب
قطع
تعيين
##حوال
بمناسبة
33
تضمن
##شرطة
يستخدم
قمة
الرجال
المقابل
رئيسا
##فن
##قائق
ضرب
الصحافة
سيارات
##لول
نم
لدعم
السويس
##قيات
##ئون
غر
التحد
اننا
جراء
الوث
توقيع
يجد
انتشار
طلاب
##ربين
استقبال
##ظاهرات
مرات
تريد
##بعاد
وأف
معدل
##جاب
##فاعل
##خطاء
مجتمع
##ياط
عبارة
البار
##عام
##الفات
القلب
يشارك
معالي
رويترز
##وضحت
المطلوب
للمست
بمست
ميد
روح
##شير
جيدا
أنت
ووضع
الحال
ففي
العاملة
والذى
وسم
شراء
الجامعات
##كتر
التزام
المناسب
تورس
##افر
فرع
مزيد
بحاجة
##ضمام
النووية
الوظ
عشرات
تفاصيل
##كرر
الأشخاص
للأس
الديمقراطية
قررت
تعديل
قوى
قصر
500
الساحة
##لتقى
##بيت
السفارة
حصول
عصر
##آخر
الشمال
التشري
وهل
##يطالي
الجماعة
##ضيع
##ناقش
بواس
وفاة
ويمكن
مبلغ
##يطرة
##ليه
السم
آذار
##ائلات
عسكري
##فتاء
لمواجهة
المشاركين
الرم
تقع
مسؤولية
وأي
الزيارة
##رابلس
المجا
السيطرة
بالاضافة
##قيام
##ناية
ويل
الدعوة
##داخل
وربما
بالب
##وارئ
شم
الملا
الهد
##شيح
##ذن
مصالح
##رقام
يعت
ليرة
سيف
اللجان
ديم
ويعت
هن
لعدم
تغير
##دريب
نعم
تخص
أنواع
اكبر
##فاف
بالفعل
الربع
أنحاء
الغذائية
اليد
صغيرة
وقعت
النووي
##اهدة
القرآن
2014
مليارات
طل
بطل
نظم
لذا
بيد
الأسهم
فإنه
##رويج
العلوم
النات
أبريل
اعتماد
حقيقة
##ضون
وأخ
تحويل
وعم
##راس
الفصل
##ذكرة
##زالة
أوضح
##زت
لمجلس
الإنترنت
عاش
##كلات
مدريد
حدوث
الدرجة
شؤون
وتج
##سته
صرف
البح
كوريا
##يمين
الرؤ
آن
الدخول
وسجل
واسعة
يو
وحول
البتر
المسئول
التك
إثر
لابد
##حرك
صحة
مدة
بينهما
الجنسية
بتس
الأسر
المكت
وتطوير
وقدم
العدد
الصراع
تشمل
النهاية
##وقوف
الاتصال
مثلا
رسميا
ميش
##ويس
اطار
##ادا
القطاعات
استطاع
وأشارت
##سبانيا
##يناء
يحاول
السفر
##بيين
الاربع
دعوة
الاستقرار
مسلسل
أمريكا
فئة
الامري
مكة
195
##زيلي
##حته
النجاح
مساحة
##لمانية
التصويت
الند
معينة
##ئناف
بقوة
السلاح
##كنولوجيا
##نائي
مرو
##وائل
ضم
جهته
##باه
الشرعية
##جمعية
##كلي
المتط
##مالك
الرياضة
##هلي
##انات
يبدأ
الحديد
فار
##عدام
شعار
يورو
عمان
نجد
##ضاة
##ثبت
الحالات
قريبا
نجم
##هلة
القرارات
الأسعار
بض
تؤكد
##كوين
الملعب
##طبيق
حاول
للي
مواقف
ناج
المرة
يضم
##بو
الفرد
الدولى
شبه
جب
##يير
##حام
وسلم
الزراعية
تحول
الأبيض
##فيض
مشد
##ياد
الكلام
يط
البريطاني
الأعضاء
اعلن
مسب
##جية
##واه
العدالة
ترب
غد
الخير
رؤية
##ولاية
##أكيد
34
##زيمة
##عمل
##حلة
##بلوماسية
تدريب
حوالى
##كمل
تسعى
الحص
السادس
رعاية
واقع
شعر
محل
##الج
التأمين
مبنى
شاهد
يواجه
الزمالك
أصل
وله
البرت
42
##تيش
المركزية
##سيما
داعش
300
يعتقد
لغ
لديهم
المهم
##لاع
الحضور
رسمية
المسؤولية
مجددا
##روفة
الموسي
الشاب
##راكة
العقارية
بشار
الجب
طهران
##ىء
تهدف
عادة
##سع
أمنية
##جتمعات
##اول
إسلام
أصدر
السياحية
الفنى
ممكن
شرف
لمس
##ونات
بالغ
لين
تبقى
الكن
##كاب
75
##قافية
##وليد
##ماس
الخطة
يحقق
##صرية
ظروف
ساهم
أضاف
الدستورية
عمرو
المرشحين
##ثي
اعضاء
أين
التيار
ويتم
اق
حاج
##بيعات
مجالات
كأ
مطلع
##اريا
المقر
##بلد
الطيران
اتخذ
البا
المواقع
بسرعة
الأندية
##نون
عقود
مادة
الاخرى
المبادرة
##الحة
المذك
رأي
كاملة
الأموال
48
كيفية
ووف
##حط
##ندات
##قرة
المشاكل
المستثمرين
أطفال
عرب
##اليب
للرئيس
الإف
##يلى
تعاون
والز
##خير
##قاطعة
القوانين
الجمع
المتهمين
جيد
أعد
الإدارية
الإيراني
راب
للفريق
##on
الذه
خلاله
البع
المتن
جزءا
الأكبر
طرابلس
ثقافة
نن
دولية
بواسطة
النظ
شن
سمير
يتحدث
لتش
##صم
عش
الثانوية
الموجودة
الهي
التنفيذية
##ودي
ممث
مقد
متأ
العمومية
أطلق
##فاءة
المنزل
وتست
حادث
اته
تظهر
دست
##قاومة
الانتق
##خال
##هة
##هداء
2003
لأول
عمله
بالص
لجميع
واب
حرية
الشأن
الخليجية
يلعب
##أمين
اتفاقية
ودعم
جديدا
الوكالة
راف
أرد
متوسط
توقف
أغسطس
الجو
القائم
واضح
##ؤاد
الشهيد
مسابقة
##تيح
خليل
للاتحاد
##وانب
المتوسط
##قلين
المعارض
وقام
والاقتصاد
الدع
فإ
قض
##خيل
التحقيقات
لتقديم
نهائ
كلها
يسمح
تتعلق
##زز
قدمت
الاعمال
واخت
37
العتي
برس
##درس
الموت
شارع
طائرة
##ائحة
##تان
##وائية
التمويل
تعليق
##روي
سلامة
الدكت
رصيد
##كافحة
##لاقات
الطبيعي
##صيب
##راعة
##ساني
المقدمة
لعام
##ائري
لشركة
وترك
يفت
بانت
##قصى
الأوضاع
تي
##امب
##ظى
##كاني
الزواج
##وائر
اضاف
الدائرة
38
ونقلت
هول
طف
تأمين
السؤال
ترى
الألماني
ظهور
تسبب
بضرورة
الأطراف
التوالي
يظهر
لرئيس
الممكن
مسئول
البلدان
##عدة
تشير
ستت
##وفي
##باكات
النفس
##لقى
التوصل
ذه
خطر
بمشاركة
جر
##رجات
انهم
فشل
أقيم
سان
المكرمة
الرئاسية
الموظفين
مقدم
التدخل
##خراج
ويأ
تعيش
اللقب
##فات
مير
التحالف
منس
الناخب
##شلونة
واوضح
للث
وتر
منز
##in
##ورين
بشر
وطنية
##نادي
لأي
##ناس
##وائد
يسعى
الحاجة
موظف
الاوروبي
##هات
ظاهرة
##علوم
##رال
وبن
التراث
الأر
##نازل
الكر
حصلت
عيسى
وخصوص
ورفع
رفيق
الاعتداء
مدار
الحفاظ
يبقى
القاضي
##ومي
الخض
للغاية
الشعبي
بعضهم
مواد
تنمية
الخيرية
التاريخية
##ذاعة
إش
اسمه
السجن
يطالب
##ينات
وبم
ولذلك
وأكدت
النتيجة
##اريو
الممت
الإنجلي
##ناقشة
قن
صحيح
##ظهرت
سلاح
##ثال
##راوح
المسل
عامل
الصعيد
طرف
باستخدام
##صات
##صرة
انتهت
العسكر
##بداع
##قدير
وقر
مشار
اتجاه
السادسة
المراكز
اتصال
بفضل
معهد
ينتظر
##صفات
افضل
والاجتماعية
مقب
دفاع
##طح
##دين
##طبق
انخفاض
فرانس
القذ
شديد
تواصل
تعت
##رافي
الرد
للمر
الخس
للبن
##ذات
يخت
##ويه
حظ
الشورى
اليابان
الرش
قدرة
الطلبة
واحدا
وتقديم
ينبغي
جاه
إب
تجد
الطبيعية
عس
الوج
شري
##يدر
الأحزاب
المسلسل
تسليم
يقت
صبا
وقوع
المبارك
إصابة
فهل
نريد
تصوير
ومؤ
##هلاك
المتظاهرين
الزوج
أسماء
حياته
##حديث
المسجد
للحصول
العربى
##ضرار
للان
أسرة
##ناسب
##طنة
خطط
مجلة
الثانى
##ناديق
##ظاهرة
اليس
مستويات
الإصلاح
الجهة
الاستثمارات
##رجع
##حدات
نفذ
علام
الكشف
التقنية
الضفة
##ارين
نجح
##ددت
وأح
##ذين
أموال
سيل
الخليجي
اللاجئين
##غت
بمد
يعاني
القومي
كري
العلماء
##سف
كله
##زنة
##وعي
المسابقة
الالكتر
الوس
الشوارع
صحفي
عائلة
طارق
خطاب
سيناء
##دمير
بجامعة
تطور
ري
فقال
زال
##صدق
الأهلى
العنزي
##هولة
صدور
فح
للصح
لبعض
احدى
قادة
وقبل
##ركان
الكلية
ضمان
##ذيب
مات
نطاق
تستخدم
##ياته
استثم
##حتها
##حلات
##يرو
الضغط
الماء
باراك
جماهير
##شين
وتف
السياق
65
برا
العدو
الحاكم
##ناطق
الأسلحة
اعادة
إمكانية
خبر
ضوء
ثالث
مناسبة
الخروج
ممارسة
##هدي
كشفت
السكنية
امرأة
الدمام
فؤاد
فرد
ضيف
##بلوماسي
العميد
##اناة
بأي
يدفع
القسم
الانترنت
والعشرين
موظ
رحلة
إصدار
دورا
قصة
خلق
الموارد
طول
تبين
##لاقة
علاج
رق
المرور
والمش
الامارات
ذوي
عود
متعددة
استن
##an
النهضة
تكر
الجسم
قول
القدرة
##ديقة
يدخل
مناقشة
الصادر
##ضرب
##وحيد
تقارير
التونسي
##دون
##رجمة
العقاري
الامم
امن
تمويل
سقط
مئات
باتجاه
وخصوصا
##زو
الطرفين
موسكو
الانف
الرقابة
أسر
الأردن
تواجد
الإسكندرية
المخدرات
جي
##خمة
##ليون
الالم
التابع
##حوث
مقت
تصدر
العشرين
44
العا
أثر
وبا
تحسين
الباب
الغرفة
اليها
شروط
التجربة
ايام
فاع
مدارس
##اضرة
الاربعاء
يقع
##نائب
##اشة
الارد
الاص
شهادة
الصناعة
يبحث
العيد
الاج
مشيرة
الضوء
خارجية
##حويل
العقل
سفير
##لمات
ولكنها
بتاريخ
اغتيال
منش
##درجة
الكوم
##هرباء
الطالب
والموا
بالاست
تنظم
ونقل
##ليس
##حى
لحقوق
رج
يضع
الاحد
##حاق
فري
فصل
ونت
##خبة
آثار
فج
دولارا
##وزع
لتطوير
المساعدات
الحسين
##رياضة
##وضى
توفر
ومر
##باع
##خبات
##وانات
##سرائيلى
##ارها
يقود
البرازيلي
هات
سأ
##زاء
الضر
مدن
ومش
نايف
ماي
##صى
الرعاية
الاتجاه
البور
ورفض
##عرف
##قاهرة
حقيقية
ارض
توص
الاتهام
##برنامج
##يلول
##ديال
الاستفادة
نائ
##قرأ
الجائزة
النقابة
بعضها
كيلوم
وآخر
الجريمة
جابر
البيانات
فكر
ليف
##اوف
للمس
##طيف
نهائي
##صدير
مراحل
معالجة
وجهة
المستهلك
والات
قليلة
الذات
مشترك
السويد
##خصة
السيدة
الشارقة
برشلونة
إر
##تابعة
الحكومي
المحد
الطريقة
صرح
الحقيقية
الأهداف
خلا
مجه
تستطيع
أط
الحقيقي
الميد
التلفزيون
المعهد
##ؤل
##شرق
للمنت
المثال
حام
وارت
##غو
أية
والتق
جمهورية
مالي
##كتاب
منظ
##عه
الاستراتيجية
الحدث
##هوري
شا
##مائ
الامت
ضعف
لاعبي
تتضمن
يصبح
##عن
مشارك
المأ
##شام
موق
آلية
تعامل
الرقم
نجوم
مال
نيس
الاسلامي
مسلم
فور
النيل
يشعر
بمر
الطرف
نواب
##يمي
اللعب
##اجر
الحس
والتح
الانتهاء
تملك
الإصابة
##خبارات
استراتيجية
الارت
تأكيد
مساعدة
بيانات
يتوقع
معتبرا
الأداء
الشديد
الفرص
بدور
صلى
والتنمية
الالتزام
150
##ساطة
الكتب
جهد
اليومية
ليل
معرفة
##هادات
##حطاني
##عان
يعلم
الايراني
مستشار
القضائية
طرق
البالغ
استمر
##رائب
المرضى
سبعة
##ئتلاف
##غار
##تيات
كف
بتقديم
##حسن
الطائف
##دائية
##ليلا
##خرة
الجزء
##صي
##طلاب
نقابة
السابعة
##حتاج
أولى
إضاف
##تمام
المنورة
التالي
موجود
جرت
55
استخدم
الحاج
وعرض
##وكي
وأوضحت
التحت
يشهد
نقص
كول
كلام
العقوبات
الراحل
المطلوبة
احتجا
اقتصادية
2002
قادر
##ودا
مباحث
خرج
بوجود
##لس
##ستاني
كبرى
القحطاني
تفعيل
رغبة
##بوط
##سوم
تزيد
سابقة
##لون
##وذ
لحل
احترام
التغ
إجمالي
مهاجم
سوء
انطلا
##هلا
الحربي
لافت
##وته
الديموقراطية
فس
القناة
الطوارئ
المحتلة
وسوف
لحظة
ثاني
##قلاب
أعرب
الشمري
يتعرض
##20
لتم
والمؤسسات
##مكان
الاخير
عالمية
الغربي
منافسات
ميدان
رؤساء
##ويلا
تبادل
تسلم
##وبا
مبادرة
##برت
موافقة
٢٠
سيس
تأجيل
اثنين
لقي
##ضراب
إلغاء
المعروف
وأيضا
##حظ
##عدل
القيمة
العتيبي
حلول
وموا
##ده
وإلى
جنا
تعالى
تعلم
والسل
46
41
##قسام
والمر
للشباب
##بلاد
ثمة
##واح
ضغط
##رابة
بالقرب
ربع
التحتية
فالم
ساحة
مشتركة
##ائعة
أغلب
ذا
##جرين
بموجب
43
التنسيق
الدي
الخطوة
##شري
##ييد
انطلاق
مناز
التعبير
عمال
##or
الندوة
البرلمانية
جبل
لسنة
دليل
الفعل
##داب
استد
جيش
والعالم
ميشال
العصر
##ثابة
##وند
تموز
وأحمد
تقلي
التركيز
##شات
بإن
39
الشخصيات
الأطباء
التأسيس
للاستثمار
##ذاك
مرك
ونصف
النور
محاولات
للعام
##كاديمية
جدول
##خلق
صحي
بفوز
##رازيل
الفئة
##قليمي
المختصة
والأس
##راغ
##شارات
لشؤون
واد
##افلة
رصد
مبر
يعتمد
وتحدث
خري
##فير
المطيري
اعتقال
السير
##ختيار
البلا
##حرية
سام
زالت
رك
معركة
اتصالات
##ثور
قيا
##ناها
هما
الخبراء
لجان
##en
الإعلامية
##ارئ
فعلا
##ربا
القديم
الحو
أعداد
##علومات
عص
مكون
طفل
طبيعة
خطأ
أست
إسماعيل
##ارتها
##زوج
ختام
البلدي
للانتخابات
400
##كرم
القرية
تجري
المحافظات
##ستها
زعيم
انتخاب
أنفسهم
أسا
أبطال
للحكومة
##ضعف
جا
##نيع
ذاتها
حزيران
صيدا
الملكية
النصف
2015
ورو
يساعد
تداول
خر
عربي
عائ
##عاة
##ادرات
ويجب
##جاهل
الأزهر
الصور
##هنة
شقيق
الجبهة
الطعام
لتنفيذ
لمست
الموافقة
حمود
##ؤولة
والي
للدولة
العمالة
وتص
سياق
##بس
وأعلن
يتطلب
العاش
فنية
##طرية
بمثابة
المرتبة
ليكون
المدى
الحمل
##وظ
يسمى
تعتمد
النادى
للأمم
الفا
##قاب
##كور
##ماكن
المجموع
##ضير
##ثارة
##ياتها
باكستان
يقف
العسكرى
لوكالة
المخرج
المنتجات
هدفا
##قدام
يومين
بالتن
أحدث
النب
تلا
##جازة
##خصصات
مفهوم
مشرو
والآ
مقعد
فاط
السلع
منهما
إرها
ناق
انتظار
٢٠١
الأنباء
##افيين
النقاط
2001
كمال
استغلال
النم
جولة
##وائح
يحيى
##فرت
الاشترا
الإيرانية
المشروعات
##فور
خروج
الاكت
إنجاز
يتضمن
الخصوص
بدعم
شيخ
##حرز
البرازيل
لغة
لخدمة
والض
الشعوب
التسجيل
الغام
استقرار
تساعد
فم
الذكر
##ar
بتش
لحماية
رياض
الجمعيات
##رقية
##ic
##ماذا
##تمي
تؤدي
00
الإيج
الصرف
للمد
ياسر
##يديو
أسواق
##بك
وفا
خطوات
ليلة
تسي
ومدير
نشرت
مباشر
زوجته
الانتاج
##شرت
وزيرة
##حيين
وام
سفر
صباحا
صفقة
يشت
شاب
محددة
تقدير
وتعد
حلم
هامش
##حاولة
ويح
##جزاء
والإعلام
يرفض
##جو
قبول
القادسية
عوض
الاتفاقية
والدكتور
الاغ
عبدالم
الدوس
وحسب
والاع
بالعمل
الحارس
اكتشاف
بالذكر
الفقر
##واخر
##هو
الهول
اهمية
حلب
يتجاوز
القبس
تعب
نيسان
47
أحيانا
متك
عبيد
العائلة
##وازن
معسكر
جنود
سعاد
للسي
ديف
رف
خلفية
الامور
ديوان
##أكد
يهدف
تابعة
تعا
جريمة
قلق
52
##وبين
الاوسط
بدوره
الأساسي
أرباح
اثناء
برصيد
##نها
##es
مفاوضات
##يميا
النجم
المعلم
معدلات
قواعد
قرارا
العناصر
##وسائل
##عارض
خبراء
بنحو
ومص
##30
##سبانية
تعاني
عضوا
##يوخ
##ؤه
يعرض
مقات
الكنيسة
الناخبين
##جوء
اتهم
##ؤسسة
##واط
السياسى
فخ
يمر
المنظمات
##رعة
أبدا
اللعبة
##لالة
##يروس
الشهداء
المستشفيات
##انم
الإلكترونية
رئيسة
مطال
نهيان
##رافية
##ولوجية
##ابس
مستمرة
لاسيما
##خين
عثمان
ثابت
تجعل
##قاع
التاسع
المباحث
فندق
نظيره
ثمانية
##ابرات
لحود
أفغانستان
الميل
الفور
بزيارة
القم
ووصف
ارتفع
خدم
سجلت
##ادته
الممثل
الباك
المناخ
##هالي
الاستثمارية
##وتا
التالية
##فه
الإسرائيلى
يطلق
خفض
##ساءل
ماجد
الأجنبية
ونسبة
فهذا
وأد
دقائق
الخطوط
نسمة
##ائح
التقليدية
المطار
الطبيب
المقال
كلين
الهواء
وخلال
رأى
هكذا
مديرية
العري
الأرج
تعرضت
عقده
اجتماعات
##جها
وزيادة
المجاورة
تبر
قاعة
التقى
##أمل
أبي
احتياجات
الأور
##مير
المساعدة
يدعو
لانت
##لو
امر
المهاجم
صدام
وتحقيق
ثقة
استع
##عمليات
لائحة
جيل
القليلة
اليمنية
ووزير
##وغان
التعادل
الليل
فلم
الخلا
قيد
بفارق
وانه
العائلات
ثمن
للجميع
##ؤها
التطورات
ولعل
للجنة
أنصار
المشهد
##طرا
خسائر
##عاف
##ارض
اخر
الاحتفال
الشمس
طويل
يتمكن
لاحقا
للمجلس
##ساوي
شرك
سحب
تصرف
جع
##ائمة
##زاز
##فرقة
فيت
تمكنت
صعبة
##غيرات
بالمئة
##شستر
سري
الجنود
51
##راها
##يارات
##بيان
##جأ
عصام
##يها
الطائرات
والده
##يطالية
##حرص
افت
نجا
رام
السكر
بكثير
صعوبة
بالرياض
وبناء
والأمن
##ياهو
ناد
الذهب
جريدة
بزيادة
وكشف
والى
##صت
الصوت
بالرغم
طمو
رضا
عنهم
المقدم
الأمراض
الميدان
##يراد
المتخصصة
اطلاق
##جمعات
والعدالة
وفيما
التخطيط
تشغيل
لوزارة
للقوات
هشام
الرسالة
فرح
وعض
الامنية
تقييم
##هان
الشكل
##اوية
جرائم
الشت
مرش
المسألة
##بادرات
ندوة
54
وجدت
الدوسري
ترامب
المعلمين
المواقف
المرافق
##ياح
للشركة
مند
##وحات
##ادثة
##جرد
بوزارة
لمد
التعا
وتوفير
جمعة
##اطئ
التطوير
البترول
##الغة
مشددا
يشار
حصة
##ديه
##طلة
##وصل
مبدأ
الصينية
الطف
تهديد
الوعي
الارض
قادرة
المصالح
خلاف
سلطة
##جنبي
المدنيين
باله
##يدات
يجوز
أعتقد
الخل
ويعتبر
مترا
زيارته
مواصلة
الروم
الحلول
الحالى
##فعال
التاسعة
وأعرب
الصادرة
##at
عامين
اعتمد
ويف
جزيرة
المباشر
استمرت
الرواية
الارهاب
##يرون
##نياهو
اعتبارا
##خلا
لمنع
فجر
##قيه
##غات
##مبية
للسيا
##يجاد
وضعت
الصد
##ماعة
انتقال
مفاج
المؤلف
##وأ
##صين
وافق
##بيئة
منازل
العاشرة
##يطان
درجات
##ناز
##ائيات
تشارك
تحرك
##تك
الاستقلال
الذهاب
##ماك
ناف
عون
##راضى
المحر
بصفة
##كيلة
49
ويش
مستح
وتعزيز
موجودة
##al
والسلام
يخص
والاقتصادية
حققت
##زوق
نقد
والانت
##هدت
إف
قيمتها
أميركا
##اغ
مصير
جميل
للات
لمكافحة
##كوك
حكومية
بوك
متط
شعبية
أصيب
ضحايا
الهاتف
والإن
البابا
أدت
حبيب
##تمرات
##يزا
الآثار
حفظه
الهجمات
نبيل
الواحدة
لاد
إيجاد
خليج
قراءة
##بول
##ليفزي
استكمال
التطور
ورأى
أبنائ
الدنيا
التل
التحديات
كمية
كاف
العدوان
الامين
##تهى
تتجاوز
أرسل
##راوي
فكان
المصابين
مراقبة
##موية
زوجها
بالان
فارس
##زون
رشيد
بمس
غا
جلسات
##ديان
الآسيوية
##عاص
يلي
##زى
تسمح
##فلون
الدوحة
كاب
بحلول
بذ
كوم
صي
الكامل
الوحدات
المنازل
##وقاف
الألعاب
##يرادات
القائد
ارتفعت
سجن
##ائى
المشاهد
##ئين
احتمال
وسب
انتق
##وابط
الكث
##زالت
التوجه
المريض
مرمى
لضمان
##كتل
بالكامل
##غالي
##صلية
يطلب
سباق
للتنمية
مسجد
المنشآت
مول
شباط
تكريم
القرى
وتط
ترح
نرى
ومم
جبهة
سلوك
ومنذ
بجروح
##وقعة
تقت
دعت
فوزه
عالميا
ذهب
داعيا
السني
لاعبين
التفكير
بحر
قيادات
ألفا
التهديد
لفترة
محادثات
نيابة
الفريقين
النيابية
يرغب
الصحفيين
المشار
وعلي
صلاة
عاصمة
##ونيا
يشير
انتقل
الصوم
الإعلامي
اجتماعا
القومى
##يرك
أوضاع
السنوي
والمه
الملتقى
المستمر
##غرق
##فاقيات
##ابق
أستاذ
الأمريكى
##طين
##فتاح
##روري
صاح
الوحيدة
التعاقد
الأهلية
وتقدم
الول
تخصيص
معنى
صفحة
##ذي
اجراء
والتعاون
الجمهوري
##باراة
وتخ
نوعية
##طت
67
إنما
##عال
لفريق
الأفضل
وسل
السماح
القطري
نفسي
يكت
يفعل
بالقاهرة
الاعتبار
اهم
الأنشطة
##امرة
عقدت
بطاقة
فإذا
وبحسب
##لفية
شوارع
56
السبع
سنت
يخرج
طائرات
يمنع
##صا
الحمد
الصيد
ناش
البنية
بمقر
الخال
وطلب
كأن
تقام
بوضع
السعوديين
تستمر
##روات
##يتين
نح
اللائ
الأحساء
##يتهم
إج
لمصلحة
يصدر
##يتد
57
خطورة
##ائهم
##زه
حارس
الاجراءات
للوصول
##فالات
2016
85
بعين
أماكن
##ناعات
يستحق
الاحتياجات
للشعب
النفسية
جذ
##اليد
باع
الأسباب
أوراق
كلينتون
ترتيب
وسيا
القضاة
تصميم
تخرج
بعمل
هجمات
مؤقت
تركي
الحرارة
بجانب
##لاحقة
تراج
##ادلة
ردا
مناسب
الشبكة
الموجود
الأجانب
##كما
بتهمة
53
الثامن
نعرف
##درج
مجمع
##زيه
تصبح
لوضع
الاستعداد
بنا
العش
##نه
المبلغ
محسن
اشهر
تفوق
انفجار
السوريين
نتنياهو
##كرا
الجانبين
المواجهة
وثيقة
يعلن
بخصوص
خاض
والخدمات
وأب
إصلاح
اجت
##لمين
بمبلغ
اهداف
عائل
باتت
الفعاليات
##فاضة
تخت
كور
برعاية
تقنية
الخطاب
انا
والنصف
غالبا
السعيد
حينما
تقدر
الفكرة
متى
أسامة
##ثق
ذكرى
ذي
جاسم
وطني
الصعب
بلدان
التضامن
افريقيا
بكر
مقابلة
##كك
الجنا
شأنه
محاكمة
يكتب
##فوق
تفس
الأولية
الديموقراطي
وحر
برميل
##نسا
##سمى
ساح
واذا
دير
حاكم
الدولار
بالمحافظة
والذين
انتاج
حري
##كنت
عملها
الشريعة
##ناك
البورصة
ظهرت
توفي
سار
أراضي
توقع
تبدو
لإعادة
السريع
والتم
اعترف
وأش
صنعاء
الدخل
الناحية
المحيط
مهام
المصارف
##بيات
والمؤ
يريدون
193
لكم
محطات
بالدم
##صرار
مخالفة
##ينغ
علمية
أشكال
##نات
يتمتع
مخيم
##مول
الصحيح
الأمانة
##حصاء
قوانين
لض
والبر
##بيعة
يتر
حافظ
بشدة
64
فضل
تمه
##ياغة
الليلة
اعلنت
يعقد
قصيرة
##ورغ
##ليين
نسخة
##باحث
##ويم
العقيد
ستي
آب
مراجعة
المحامين
عجز
فق
علماء
خطيرة
لحزب
كيلو
الحرة
عمره
الامة
وأكثر
هاتف
حذ
الشمالي
إشارة
مانشستر
##يور
##يله
الاستخبارات
الجنوبي
تهم
حائل
جهات
سرعة
الممار
##ائز
القراء
الدكتورة
والام
للمن
وتقول
##ويين
للحزب
لمناقشة
##افل
يستمر
##ديو
السائق
ينظم
أميركي
العملاء
الإرهابية
الأمني
زار
البلدة
للغ
نهر
62
صحية
##اضرات
المعرفة
البرو
العالية
وبه
جوائز
إننا
إغلاق
مسار
طيب
الربيع
هند
إست
للمت
بذل
وجم
##يذ
استعدادا
كلما
والأن
الثم
##لاس
##املين
الجميل
##زد
طالبان
أسس
الزعيم
ببعض
مشروعات
السباق
سياسيا
##وتي
المخيم
الجنائية
كات
المفوض
والتج
##وقراطية
ميلان
اللجوء
أسلحة
وسيتم
##يريا
##واتف
الشروط
كلمات
شارون
فوج
أنني
66
##طيات
##طالبات
الكتابة
يمتلك
التونسية
##فايات
بيل
المجتمعات
الجزائري
كريست
الناش
يأخذ
البيع
الكبار
الناطق
مذكرة
مستمر
الأساس
##اولة
تابع
القومية
يؤثر
58
وإعادة
الديمقراطي
متنوعة
##افات
الحرس
يحدد
اللذين
فاطمة
الافتت
للاعب
كتلة
إرسال
##يما
حسام
الكلمة
قلت
تذكر
للشؤون
الدائم
##برات
الأخضر
##صورة
ميت
غضون
اصحاب
لمح
لعدد
##يمز
وسيلة
##ادها
جول
أخيرا
##شفت
استقلال
لتكون
منطق
##طون
المؤشر
انتهى
قطاعات
فش
الفضاء
فيل
##فاهيم
واضحا
عكس
الدراسي
التحكيم
الاض
##عقد
القاب
مؤكدة
اوروبا
الجودة
الكرد
الخر
##قبة
##يفي
خسر
شأنها
القا
خطوط
رون
أبواب
##عيا
##لفزيونية
سبل
##يمون
##عاش
##كف
التشغيل
لمصر
##ولون
طلال
##قراطية
وسن
اقامة
##ريج
##قتين
##وفية
ضابط
البطالة
##وبى
وهكذا
أمور
اعداد
##سلامية
##زر
سامي
أقرب
التداول
المعم
تستهدف
##يرن
##طيل
اللحظة
تأخر
ويأتي
تنفي
##قطاب
تشجيع
##ئك
طالما
مها
حيال
لبناء
##صائل
##فلونزا
الظهر
حلقة
الوسائل
واجه
التشريعية
وحدات
رفضت
##ئن
لأس
البقاء
الكهربائية
ثانيا
##وست
قدره
الجامعية
مجموعات
كميات
وتحد
الاهلي
بقدر
خيار
القنوات
الغامدي
وليست
وار
العص
خسارة
وعبر
##فرج
الته
والتس
تطالب
الرؤية
التقارير
قم
خال
مبد
الاصلاح
عماد
استر
إما
مدا
##همين
معاي
##فيز
جاز
مسير
رسمي
مثلما
##دب
فلسطينية
تث
اجتماعية
بز
والمسا
الخارجي
اليورو
ربط
##قود
سراح
أقول
والاحت
ثقاف
معين
عال
ابناء
جمهور
سائق
##ابقات
موسي
##ينيات
وصر
لتص
يمارس
الإست
##رحى
زميل
المبنى
تحاول
بالمست
##يطة
التأثير
بالقول
أثبت
الناتج
##هى
وعبد
الجوي
فريد
وكما
الوظائف
##وكر
الأثر
##ناقض
استثمار
الوقود
عروض
الاتحادية
كرم
المها
محيط
يتأ
##سيد
شديدة
##he
##انه
لنقل
الجنرال
كتابة
##ؤدي
روم
المباشرة
إنت
بالمر
واقت
اسعار
محلية
##مارسة
##يرى
واسع
ممثلة
77
الايام
المرمى
الازمة
##هيوني
دورها
معايير
##قلب
##تو
وسوريا
التفاصيل
للجم
مخاطر
الملي
مشاهد
اربعة
أور
##اقم
الخلاف
بدءا
العاز
نادى
بدل
العيش
ترشيح
اصبح
##سمع
##لغاء
روا
المعركة
أعوام
مبيعات
##ثبات
وأل
تجديد
انخفض
##وفد
سك
##ليمة
آخرون
الفضائية
250
ضباط
والصناعة
الوجه
ميناء
الابتدائية
القل
##موما
للدفاع
##كبة
للطاقة
##هوض
تعم
##خي
بعدد
البيضاء
حامد
حف
##رش
تلت
المغربي
كريم
والصح
والاتحاد
الشرقي
المري
الكونغ
الاقتراع
عرفات
أفكار
فحسب
الإمام
المطر
للسل
المحاكم
سبأنت
طبية
لث
الليبية
انشاء
##حوا
التب
التوتر
لنفس
الاستمرار
قريب
ينظر
أسابيع
##املات
##ينيا
لاي
النوم
القيم
72
##جاجات
مكث
للاحت
الاسم
وحل
الموافق
طرد
##حانات
الجيل
اك
الشامل
المجموعات
ساعد
للبر
جملة
العلي
موظفي
وخط
ضربة
وأعضاء
بموا
ورؤ
##كانات
السياسات
تضع
درو
قاسم
اقل
تهد
61
الحصار
##وعا
مكاتب
الأمل
قاموا
الصالح
##جران
حذر
لدول
العقار
نقول
قدرها
##طاعم
##نج
الضحايا
ومصر
السكن
##غى
63
الانتقال
الخبرة
ورجال
المخاطر
الموس
مسي
بالمع
اوب
مرف
الأنظمة
مبينا
##سيات
صب
الناصر
وبذلك
وتك
والفر
أقدم
يلتقي
الآلاف
الصحفي
فرقة
##صدقاء
متوا
انجاز
وصولا
الإلكتروني
دراسات
والبن
الوسطى
للمواطنين
##وائي
واي
##رفية
تحصل
زع
اعتقد
يجمع
المهنية
الضمان
##راعات
احتجاجا
فران
عاج
##ره
##بلاط
قضاء
مستقب
تؤثر
95
الزهر
ممت
وجاءت
المستح
##ربط
التجمع
تعني
يونا
عموما
السنوية
للمح
ميز
تأهيل
##فيفة
عقل
##01
السلة
##زامن
##ضيفه
الاستفتاء
حسابات
##واحي
أجواء
السنيورة
الفائدة
الأفلام
تميز
وعل
ملحو
بتنفيذ
أصوات
يشمل
##ونى
النجوم
##طرابات
وهما
يفترض
وظيفة
##راحات
لتعزيز
قانونية
الاطفال
حوادث
جزاء
أرج
الظاهرة
للأن
##عاصمة
إنهاء
##وسم
##مديد
موج
قليل
الإشارة
##قيمة
اليمني
ابد
يقبل
باقي
وتعتبر
ماد
حمدان
يدرك
العقود
لأب
حلف
##روحة
وبما
قليلا
##كانيات
أحكام
والتش
68
الاسباني
الحكام
السجون
ورقة
مطر
كفر
تقف
يعملون
مقدمة
الامريكية
لتنظيم
أفلام
الحماية
بيئة
الدوائر
يونايتد
سياسات
وبدأ
فات
الصغير
##شيط
وخارج
99
##ناعية
القيا
##شك
عشرين
##هاية
الجارى
صدرت
لبحث
الزيادة
المستويات
##بدء
##ئى
يهم
بمركز
##افى
الانسحاب
فهناك
فنحن
البول
تلقي
هيل
ووا
القتل
غيرها
##جواب
قطعة
بالمد
ولت
##قاطع
هز
##ئتم
##نتها
التأكيد
الأفراد
تسا
امتداد
شاه
الضغوط
الترا
جنبلاط
قرابة
ومل
شمس
لتلك
الرابطة
الخز
شريف
##غلب
الراهن
المصلحة
الطويل
الأفريقية
##يوف
والاد
ونا
بعثة
النفطية
76
المشرف
##راتيجي
وجميع
191
موت
حدة
##براز
لمش
شاء
##كيك
ابرز
ناس
الخطأ
يهدد
برلين
فاروق
زاد
##اله
##جمالية
الجغ
منزله
بعيدة
##كاسب
الصناعي
##وضيح
الخطر
العثور
لمعرفة
##شأ
تخصص
البيئية
##عبي
شاملة
2017
الثنائية
ورشة
المسئولين
الصهيوني
لأحد
المبد
وعمل
الهجرة
تيار
منصبه
بمعدل
القذافي
إقليم
رش
تدفع
الصناعات
النقاش
اليابانية
الايرانية
حديثة
تعلن
السد
عددها
##لائه
الأحوال
الاوروبية
بطر
برج
أهالي
192
لإدارة
الاعتراف
تتراوح
تجم
وادي
أراد
عدنان
ونظ
مربع
قتلوا
رواية
يطرح
الخوف
##قار
الحوادث
واج
الضرائب
المنتدى
الهاد
بمقد
##عارضة
ويضيف
التصوير
رابطة
الأصول
الايج
وبت
تدعم
للمنتخب
وأصبح
تصنيف
الرج
بالإس
النسائية
لعبة
تقر
الكون
##لاحظات
بتص
عوا
اختبار
قوي
يض
الغال
أشرف
الصدر
تأخذ
الجدد
##سعيد
59
السج
شخصيا
سيتي
السلبية
##حون
المتقدمة
##سيع
الخص
المتأ
الجبل
السياسيين
أخبار
تخفيض
بخط
اعتداء
وشارك
للتص
دخلت
##ويتر
##is
ولأن
الخمس
يخدم
##هيون
المصرفية
المستقبلية
مستقلة
الأصوات
تتمتع
المخابرات
التكنولوجيا
##الته
إيطاليا
أثار
##قناع
120
العراقيين
الاراضي
الدبلوماسية
##ستور
##مني
مصري
كونا
وإصابة
غالبية
المادية
الكاملة
قبيل
السلوك
يومي
وسمو
تسوية
ووفقا
ميزانية
المرورية
الليبي
الفنانة
##وكب
الحكومات
يقال
ودول
والمنت
حسم
تمهيدا
لتحسين
المحيطة
القصر
والاعت
##ريحة
ولهذا
رفي
أدنى
##عكس
##غاثة
##وايا
للجيش
مازال
انطلقت
بالض
وذ
البطولات
وجل
##يرل
استعادة
الساحل
العادية
والاستقرار
الفاع
المنافس
الحمراء
ليع
سد
أعرف
القريب
##شرح
كافية
1998
الروح
منى
المفترض
مني
شاركت
##ظات
عدا
الايطالي
المشكلات
للانت
العروض
فورا
شملت
متطلبات
##سيط
العظيم
مقا
المحادثات
##ماج
بحد
السلامة
المالكي
##زيا
##لفة
احتفال
اعلان
اهتم
##وقيع
جودة
##ثات
##قان
أصول
الفئات
##وقت
للز
بتر
الأفكار
##جنب
باد
نيك
عليك
ويرى
لرعاية
سطح
المراقب
الأخبار
##وظف
##وعات
الأربعة
فئات
عوامل
ولبنان
##ساتذة
للعد
بصف
النزاع
تدعو
##وائم
##اليف
رغ
##جنوب
##حقاق
71
شهرا
وعلم
سيدة
عددهم
بالمملكة
تايمز
المتاحة
التجارب
الكام
القوي
المتع
تكوين
كونه
مصرف
الهوية
تتمثل
الصار
##نز
المطالب
الجيزة
لاب
مقاطعة
##وفة
بواقع
انضم
ضيفه
##تمكن
الحلقة
غيره
وسيكون
تخل
طويلا
أسط
وعبدال
الاقل
طلبات
هاش
اجراءات
##ثرت
الأقصى
القيادات
##جلات
القادة
حظر
143
الإقليمية
ومنع
الإطار
ورح
الصدد
الجرائم
##ضمون
المعايير
المقدسة
73
##منيا
باستثناء
الشراكة
الأمريكيين
الصيني
##حرر
##تاب
ملم
اسبوع
معارض
باللغة
الصعبة
كرد
المسيحية
روما
رفعت
##it
74
استئناف
المعتقلين
القروض
المعي
المخصصة
لتحديد
عامر
نيوز
مشعل
لانه
وصاحب
آنذاك
الأسبق
##عودية
ده
باستمرار
معروف
بوتين
إيجابية
يختلف
الأشهر
التمي
توسيع
بقرار
وجعل
##قذ
الشام
الخلافات
سما
الاعتماد
والعراق
تزايد
موجة
الأوراق
##بق
الميزانية
التربوية
##ماذج
##عدى
اقتراح
إضافية
بنظام
أمريكي
أز
##ئل
السالم
أبلغ
الارتفاع
تلعب
منتجات
وحده
القابضة
لسان
سيست
تجارب
أواخر
الصلاة
مبالغ
##فاقات
رجب
ستن
لأسباب
بمح
##طلعات
لأكثر
##قته
فب
الإداري
جنيف
##جيب
المركزى
الفنانين
يعانون
برنام
نساء
##ra
المستقلة
##جاجية
تسير
صدي
يقارب
دائم
جوز
فسي
والدولية
##ويف
الموازنة
الحيوية
حاز
الحسن
##قيل
ديفيد
تقرر
نجيب
تعادل
جير
تختلف
أقصى
سرقة
المساهمة
أيلول
المسار
قلوب
استث
الأحيان
##حار
إخراج
الراهنة
المار
تلق
بالسجن
##سلم
تشت
فين
سكنية
الرائد
##ليك
أصدرت
القوية
للحد
والبحث
الاحساء
الشرف
حميد
78
تقبل
مشاعر
غاز
بلادنا
##يلية
وكيفية
يعبر
إنهم
وحين
المقت
الشهري
الأماكن
وأت
تحدد
الشيع
##رخ
الاشتراكي
كلمته
الانتخاب
##كاوى
رحمه
تول
##ايا
##قرية
والثقافة
##ركية
الأدوية
هلال
الفنون
تتطلب
الانسانية
ووجه
بتع
وأول
الصع
الود
المنتظر
##يادين
##يرها
الفار
استعمال
##اضى
طبقا
الفتاة
تحتوي
تنفيذها
نكون
استثمارات
##اعيات
راج
الاستع
دو
يتقدم
التدريبية
نصيب
أسلوب
##رائح
بجميع
حدد
تمتلك
المقررة
تسعة
مكاف
مدر
يقدر
##لامح
##جام
انطلاقا
طبيب
تكت
حديثه
البدء
اللائحة
التفاوض
##قرارات
جندي
المعروفة
##ربون
صحافي
مطالبا
سرا
المثقف
ويبدو
التدريس
شخصيات
هوية
يزور
أساسي
##هت
العقارات
أقام
بالتأكيد
##زلة
سانت
##طفاء
وتحت
الحريق
شرعية
غاية
ومخ
##ندسين
##ستون
نموذج
الشيء
التوقيع
السياحي
عقوبات
اللازم
##رياء
##قدة
شهرين
##سيك
الهر
ونشر
غضب
600
الذكرى
اشتباكات
##ديب
زيد
يحب
وتب
##قترحات
الأحياء
نواف
الانكلي
تجارية
##فافية
إنسان
توافق
##ؤتمر
كونها
وقتل
الارها
اليمين
صغير
إقرار
##كلم
لز
ألب
اشار
الزهراني
المحطة
إيه
متخصصة
يعطي
وإد
وبالن
المؤقت
والأم
لرفع
##داقة
الخطوات
لاحق
تدور
مسافة
رحل
الغذاء
علاء
##نبلة
##هدفت
##ونيس
##ابير
القادر
الجهد
والثاني
ويؤكد
أقيمت
##يرين
##ضال
خار
المسرحية
لتع
اضطر
##صالح
تنتهي
الهيئات
الدفع
تولى
##يقاف
طلبت
##عاقة
والتع
مرتين
الخيمة
##تمدة
مليونا
##ونديال
المستخدم
حرة
صاروخ
جسد
سبع
تكلفة
شرح
الفوضى
مفتوحة
الاتهامات
للام
التحرك
1996
النفسي
##ياج
مالك
نفى
نستطيع
اختصاص
الرسوم
الترتيب
البطر
##فاه
تري
##طلسي
وأج
بأعمال
المنتج
صديق
##يليش
##بارية
طبيعية
##طاف
وجن
الترج
تتعرض
توفيق
الكيان
ابتداء
بتح
المصالحة
أطلقت
لمتابعة
سعودي
الواضح
تاريخية
##قيبة
نقلت
والجم
غرف
البريد
##عوا
صراع
أمراض
طالبا
آليات
نسبته
لقاءات
الشهير
تردد
والشعب
المجمع
أساسية
الممتاز
القلق
التوافق
##بيبة
يهود
##فترة
العامل
الشيوخ
أود
والثانية
الحاضر
##ماعيلية
98
الياس
##سو
لتق
للقيام
##عدد
بمجلس
محافظات
لوقف
عي
داف
##ريكا
أنباء
وبلغت
##ينو
يترك
أظهرت
أفاد
استف
اللون
##ماغ
العثم
##يفا
أمرا
##جوز
المحامي
ارتفاعا
##سيوط
لحركة
تعويض
النسبة
يكفي
الادارية
توقعات
الصحراء
ربيع
للمرأة
82
##وقة
##قس
##الله
شرط
فروع
للتعليم
##يابي
تأليف
ألقى
الجزائرية
لتأ
دورات
لأنهم
القارة
والتأ
الإذاعة
فد
المجر
وأنها
الأدب
69
يعكس
بدورها
باعتبارها
مرسي
انش
واح
تجارة
أقر
الموسيقى
تأييد
العوامل
نجحت
بالتنسيق
القصيم
الجماعات
الطائفية
بيانا
ملت
لكون
أمانة
كتابه
##كاية
##اتين
رسائل
##يسر
##لقي
عسير
غادر
منظومة
##صلين
انهيار
تبني
والعم
لاحت
واعل
شفيق
ممثلا
الدراسية
ويكون
وتأتي
باعتباره
والتص
وتحديد
خز
يفيد
يدعى
##فهم
النقدية
والخارج
ويعد
أطراف
تكري
والسياسية
##نتيني
والولايات
##دامة
تكاليف
تنطلق
البعثة
##عها
التصرف
تتبع
##وده
شدد
القصة
وبشكل
والسي
04
تعقد
التأهل
سيطرة
الفائز
وظائف
الخري
الشكر
ولقد
##صارات
ترفض
وطال
##ظروف
رغب
فإنها
اختلاف
فتاة
تنقل
الإيطالي
ياسين
##ستي
فيهم
##جعل
88
قلة
تلقت
خان
الاساسية
عاص
##اتل
##مون
المذكورة
بنتيجة
ذاك
##حصل
الفج
أنظمة
##ئيات
رصيده
##ناث
##طلح
أريد
نجران
الفكرية
وحدها
81
كلي
القبول
المغربية
##ئيا
الديني
أندية
##حاكم
سكر
المذكور
وبدأت
الأسود
##صدرت
تويتر
التربوي
الائتلاف
انني
الحميد
##ذى
لزيادة
##نق
نائبا
##وحا
طراز
مستخدم
أض
##قاها
فالح
المباني
##بكة
##بيقات
##ثيف
حفر
فني
موز
شكره
والمجتمع
الخبرات
تدريبات
##براط
كويتي
##عوام
دولي
خاط
فو
##يعاب
الفيديو
أيار
هار
84
96
انتصار
نعيش
والشباب
والرياضة
نار
للأطفال
##ساة
الامريكي
وأخرى
جلال
بمختلف
التمييز
##خلة
أردوغان
المكون
##كتابة
مجا
ميون
للمطالبة
الشقيق
واص
القمر
تبحث
فاض
قدمه
والو
##شع
بدي
##هرا
لتف
انعقاد
وحضر
بتم
لست
جميلة
الدار
يحضر
##ربت
بحكم
فيديو
الالماني
دب
##بطية
معاناة
الحجاج
يدل
واجب
ذو
وجهات
لتوفير
ضخمة
يواصل
مريم
مماثلة
غرار
بارت
86
إيقاف
روبر
بإمكان
##صدى
التشكيل
العشرات
لحضور
المائية
يرفع
سويس
المهني
والثقافية
قدرات
تربط
لمنت
وأخيرا
آي
ريف
بالمس
يثير
حينها
مهد
وشركة
صوتا
صواريخ
##اردة
التمثيل
المساجد
أقوى
العجم
الأحمد
يقيم
تجهيز
تساهم
دوره
التعديلات
البراد
ثان
##روضة
##ضار
وغيرهم
##روية
مراد
واكت
تتخذ
أيمن
##مانة
الاستاذ
رأسها
الجامعي
المراحل
والمخ
الصادرات
الطيور
##روز
المانيا
وتبين
##قاليد
انتقد
تنتظر
شىء
بالطبع
المرج
حامل
مشوار
التدريبات
مستقبلا
المكلف
والإد
لبنانية
##واي
بمعنى
أشارت
الاعلان
تفرض
##حكم
المدرسية
النبي
السليم
سلطات
سوري
##تمت
عثر
والمل
بانه
##لفات
يعادل
##ركي
ويق
للض
لليوم
تحالف
##روعة
##ائلا
يرد
قضائية
السوداء
لاعبا
##طرت
الكم
إسرائيلية
رونالد
بندر
فول
##داولات
العظم
الانفجار
##شرون
للبنان
##غطية
##زايا
تعريف
المبر
مبادئ
استقال
نهائيا
مصرية
##ظن
لأننا
##هيلات
افتتح
لجهة
خبرة
طيلة
أنشطة
يضمن
##وارث
##اتم
##فين
لتر
الصفقة
##ومين
يكونوا
والرئيس
الوقوف
##ظهار
##ردين
##ذان
القتال
##وصيات
اليونان
متت
##صير
المطب
##لث
الصواريخ
بعث
اتفق
الغد
النهار
يتناول
تتأ
##ريحات
الده
فنان
نسي
مراقب
المخالفات
مقاومة
##جدات
عنا
قدما
97
بأنهم
صناديق
سعادة
المنظ
مسؤولي
ومنت
##وضوح
القتلى
##قيلة
للبحث
##ستانية
القطرية
فكيف
الكلمات
##فساد
##ندى
##انو
امل
متحدث
##صنة
الأسئلة
شهود
بالتع
##برة
دام
الزميل
يوف
اللقاءات
الطالبات
الفرع
انسحاب
مصنع
العائد
البحوث
اربع
وحيد
##طفل
ليون
##بعوث
##دل
وزوج
الهندسة
79
المنز
##ابعت
##ثث
الالكترونية
السلطان
تركز
تبد
##ابهة
##ياع
إسرائيلي
وتحديدا
##ماعي
تحليل
البحري
##ئوية
المتوسطة
للقضاء
واصل
وتمت
يعيد
تغطية
الوثائق
##وطة
##الثة
##فاءات
##وزراء
أيد
مخاوف
87
فكل
##ليفزيون
مسؤولون
واجتما
##ساءة
يذهب
إت
غازي
بطلب
الكمبي
منف
عراق
يتحمل
الهولندي
داخلية
أيدي
ملحوظ
يونس
حاس
عملا
تحولت
المسيحيين
الإر
سرية
والله
السعد
مقاعد
المراقبة
مهارات
قرى
بسيطة
##ضائع
اصط
الاسواق
كس
##ومه
مستعد
1997
الطويلة
لعل
العجز
مضاع
واتهم
حسنى
##بنية
الخسائر
غريب
ليصل
يان
##يميائية
جوانب
باخت
الطبيعة
أحب
لإجراء
أعماله
محضر
##بلاغ
بفعل
الجميلة
لهما
الياباني
يكشف
فير
83
سنتين
الحيوانات
الموصل
تدمير
ريالا
##سلامة
لإقامة
وحماية
##ارتين
عرضا
لسم
حج
الأبحاث
##همال
منتج
البت
يشبه
تدريبية
تبوك
800
باحت
منظمات
وبعدها
الخمسة
ادى
##عايير
يساهم
ووزارة
المتقدم
تمنح
طبعا
امين
المرح
خوض
رئا
وصرح
91
تسب
الخسارة
الكف
الإسكان
مازالت
يدعم
##شدد
تقيم
أغنية
غذ
الآسيوي
##روك
##نعة
نوعا
وقامت
ومركز
السكانية
للفوز
##اوي
جدد
كندا
##وسة
حقا
طيبة
التصريحات
العوا
##غبين
الحقائق
##ويج
التعرف
طيران
استاد
الشك
المتح
أهمها
المتعددة
ستست
السرعة
خرجت
حسني
المسيرة
العاشر
##كيا
التاريخي
إزاء
إذن
##طوم
لحين
النارية
بجد
بقا
سريعا
البقاع
الباطن
للتحقيق
الحريات
03
##ذير
##برع
##قلق
توظيف
تخط
##بان
##ريبية
##ولان
الزراعي
مرج
إزالة
تقدمها
##مور
مور
##عديل
الفيصل
فائ
كسب
كتبت
##كسر
##وفى
السرطان
##واها
القريبة
##سق
ومتابعة
الحوا
بنفسه
الساعات
المحترفين
والتر
يمنح
حدثت
01
##ion
أكاديم
لإسرائيل
نظيف
##ئر
##صحيفة
##وضة
يسي
تفيد
المتميز
معنا
وقي
الإح
مناص
##قابل
متع
##ضعاف
تقدمت
يتوقف
بالمن
تمثيل
خش
النبات
العبدال
تكرار
لمساعدة
##امعات
التمر
الأردنية
الأراضى
##وكا
الائتم
ضغوط
الدوا
والتدريب
البو
تتحدث
الارج
إعطاء
شو
مصرع
##مات
##زاع
سمع
عاط
يقومون
##ارعين
عادت
مسئ
وينت
##قوب
رسوم
لتت
برفع
مشاركته
##خوان
عقوبة
زوجة
القراءة
##فعاليات
المطالبة
##مارات
الأجواء
الفارق
##وطين
دوما
مائة
عزم
قا
الكريمة
قس
##غام
##مته
لشراء
بالث
الميلاد
زادت
تمارس
التوازن
##ستير
##هيونية
تعبر
مرح
يقضي
أفادت
وإح
الفتيات
يوفر
هاشم
صحف
وجهت
روب
جازان
##كراد
إرهابية
شامل
للتعاون
##ائط
القانوني
الشاملة
المقات
فلسطيني
الفرقة
وتنفيذ
شهور
لبل
جس
المواضيع
الجوانب
تمنع
النجمة
المعسكر
ملامح
تعكس
توصل
وتنظيم
وقفة
الجارية
##يلا
##قالات
السعر
رسول
قنوات
والقانون
عائد
بيننا
والحكومة
مكانة
تلفزيون
جثة
##برية
جوهر
الإعداد
يعنى
##داة
ومؤسسات
التنموية
الآلي
ومسؤول
تهدد
النيران
بهدفين
استهدفت
##اجه
##طنبول
الودية
##بعث
لعمل
جنيها
فحص
معي
بقوله
تفقد
المفوضية
طبيعي
##كه
##منين
المديرية
وتاريخ
##سكي
يخوض
التضخم
##هيد
عنصر
اتهام
دارفور
والجز
البعيد
النفايات
التحول
مارك
##اندة
الممارسات
الذهبية
لاستقبال
خميس
الصدارة
يفكر
كنيسة
##ورن
الاعضاء
الحكمة
هج
##ماهير
بأكثر
إصاب
لولا
سود
مديرة
رؤوس
نجاد
##ربول
بإعادة
محدودة
وبل
لاحظ
وفتح
##ادتها
معن
##جيرات
لوحة
أمريكية
تصف
للمش
حاولت
سبا
هادي
##كررة
صاد
وحقوق
سلبية
بينه
حياتهم
الاستشار
النيابي
الدورات
##التزام
بند
مساهمة
##فيهية
الكمبيوتر
الملاب
مسرحية
حسبما
بالمركز
يعيشون
##صلا
شت
##وبيا
وقتها
خض
شهداء
بطول
##كز
والاه
##دام
مشاركت
مسؤولين
الثابت
حوله
##والي
##فسنا
أهالى
##لزال
سريعة
صعب
المستمرة
##اشات
فترات
الإسلامى
تنا
صادر
ماري
وتشجيع
بالدمام
متف
الجوائز
الأكاديمية
1995
بالات
هاد
كه
##غياب
94
صقر
مشرف
المتميزة
##واني
##حاسب
نظرة
وعضو
البرتغالي
الزوار
لعملية
بتشكيل
##قيت
##وتها
##شال
تقسيم
يحق
##كاء
الالكتروني
##سحب
##لتين
للقانون
استهلاك
التوفيق
##قدرة
الإنساني
الأخطاء
جيم
تلبية
وعليه
وحصل
صلة
وأصيب
##تهن
ردود
هامة
السريعة
لكننا
وحسن
ثقافية
إمارة
الافتتاح
الهندية
92
ازد
لويس
للشركات
وامت
ليصبح
كارل
أجزاء
العكس
مؤشرات
تحدثت
المنتخبات
##فتتح
للبلاد
##واهر
بحثا
صياغة
الإنجليزية
الذاتية
قصف
فلن
يسجل
سكن
لوجود
توت
وردا
المخل
عامي
وأفاد
تفجير
جواز
طالبت
كاتب
##قها
تجرب
##خاب
قويا
##تيلا
توج
##سيل
وتل
##رنا
مئة
معارضة
الشهيرة
قائلة
ورا
الانتقالية
لتخ
##راجات
##فرغ
بكين
عميد
الماضيين
اداء
نسبيا
نبيه
##ظلم
##تت
بحرية
للدول
محور
بقاء
##قتهم
يحتوي
##يلاء
يتعين
اصبحت
والتجارة
##ليها
العماد
القاسم
عط
89
متخصص
شمل
رئيسية
الاختصاص
واشت
اختار
صالة
والشركات
وبالنسبة
عهده
رائعة
الواردة
##وطنات
ساهمت
الدورى
وأعلنت
سعادته
##تراك
بلقب
قريبة
##حادي
الأسماء
اكتشف
##لاقية
##سيخ
الداع
لدرجة
عمار
التشي
وانما
سينما
للحفاظ
المتب
بكلية
الملفات
##غلق
##جمعيات
احتلال
وتشير
مخط
الخلايا
##نتظر
التصفيات
الهم
تحسن
أسفر
روات
إلقاء
أجريت
مطالبة
الاعلى
الشعراء
دستور
إلكتر
تحديدا
وتحسين
للسياحة
##حاس
1994
سيم
وبط
##غاف
##ثى
قند
الإطلاق
المخط
إنقاذ
يفرض
الكو
ويشارك
وفاز
##نيابة
يدور
الفلاح
الرغبة
انح
##فان
##وقيت
البري
الشخصي
للطيران
للنظام
اساس
##اهة
العضو
التراجع
الاختيار
عراقي
خوفا
حث
مشكلات
انما
حيدر
وارتفاع
عات
تصاعد
قاط
معروفة
##رامكو
##فاقم
الدعوى
##عدت
والأخ
##دو
العناية
والدي
محاكم
الأصل
تسل
قالوا
ركلة
علامة
رعا
##وشي
الخطط
لقطاع
البشري
##زايدة
ولماذا
وكالات
فازت
اولا
الاجتماعات
المصرفي
##وافر
تطلب
قذ
شتى
ملتقى
الأمطار
أعقاب
الكتلة
بتأ
توافر
##نافسة
الوزن
وافقت
##اليين
بالي
ايجاد
مطلق
الطيب
مساعدات
##احنات
جعفر
يؤمن
النسب
##ro
شعبان
##امح
##ستين
بتنظيم
اسماعيل
يقرب
صعود
بحجة
حقيقي
يقولون
بسهولة
ودعت
##ضحى
التدخين
جانبها
الديوان
ارتكب
تكشف
1990
حريق
الزب
متس
##جلا
الفتنة
أوائل
الرحلة
##افظات
المبالغ
الضباط
مضى
صادق
بمستوى
عودته
تمام
شهادات
الكاث
الديون
العبد
1967
الاكثر
تزويد
##دران
توحيد
##تمالات
##رائية
طاقة
الرأس
الأرقام
لمعالجة
ريت
##وكالة
الغضب
عملت
وشهدت
لتأمين
الرئاسي
مشهد
##وائف
ومجلس
##احنة
المبكر
لمشروع
الجهاد
والأح
السويدي
بإطلاق
بجائزة
الأرباح
تلم
هيكل
##وانئ
السودانية
##تيبات
الاوضاع
المرتبطة
رموز
##le
##غلقة
يأتى
أرى
وضعها
الاجتماعى
المشاركون
تنفذ
##جمالى
بنجاح
لام
يستقبل
المخطط
الاردن
##ريان
##جليزية
الكوري
##صفة
أسبوعين
والدول
يقام
##فف
##ولوجي
الكات
النسخة
صحفية
##يلان
الملابس
البرية
الحز
كفاءة
اقيم
##فلت
عبده
المرف
مميزة
جاك
مكتبه
النحو
ليلا
تعهد
روت
حقه
إليهم
الشعور
حتي
##سنوات
لمنظمة
وتوزيع
بحوز
مايكل
##مام
رفح
بولاية
##يثاق
اعلام
درويش
مكتوم
##ويته
وإدارة
منافسة
حديثا
إعلامية
عزيز
الذرية
رواتب
بيوت
مروان
ابنه
المتخصص
يتخذ
المجالس
لى
سفينة
##قاق
ومثل
لتد
قصيدة
للسلام
شعوب
دينية
##يتي
الرياح
المقام
مخطط
سلبا
الوفاق
الوجود
والحد
تطرح
لرئاسة
حولها
بورسعيد
تطلق
اقتصادي
اقام
الخش
لاعبيه
##طلبة
المستثمر
تفت
##يرت
الستة
محر
بوس
شبكات
وبي
المسؤولة
حدا
##ساحة
الإماراتية
مهدي
##جاعة
ودور
##اوى
بعل
السادات
##اهل
الحجم
##ائص
أجد
##ائيا
كيلومترا
التخصص
ثلاثين
بالمح
##ياف
مركزا
دعوى
تخدم
##ودها
لقائه
إقام
تضر
الأزمات
المتضر
أسئلة
##هادي
المنصب
الرسائل
الحادية
##عاهد
حمزة
##يء
الجريدة
السيدات
استهدف
مختل
الجيد
بوقف
الدبلوماسي
كارثة
وتتم
للثقافة
تكمن
هاجم
انتح
مواطني
##فرة
وشع
ثالثا
اخذ
الذا
الأهم
الموعد
كاملا
##حيط
الحروب
##باعة
واستخدام
منخفض
لمجموعة
المسيحي
رزق
##يتس
مواليد
اجمالي
##الين
تعداد
بالانت
وجرى
مين
وزيرا
مجمل
لبطولة
##اتنا
بإذن
##لمانيا
طه
القبائل
##خصيات
الخطيب
##اعا
المسابقات
السوداني
عمد
##اجرة
العيون
الحظ
تطورات
خام
مضيفه
بتلك
##ستراليا
##كريا
وثائق
البالغة
الإسباني
محاضرة
أبرزها
##راقب
السا
كسر
93
حديد
بالاعت
الركاب
اوباما
بصدد
الباحثين
المدنى
قتيلا
اين
ملاح
واستقرار
السفينة
##ظيمة
اليهودية
التلفزيونية
##راءات
بالعاصمة
##همات
وأهم
##ارئة
وتوجه
مؤكد
أحدا
##نيه
##اسر
لتصل
الملاعب
يحفظ
الفيفا
##وظيف
التام
قبر
تستضيف
تفعل
##افرين
واقعة
يفضل
صل
##ثمارات
عمرها
والاقت
يتيح
استخدامها
##حه
لوس
جدوى
المحدد
الموضوعات
مشروعا
السفن
رحب
##ليط
جبر
بمصر
##ودان
الحوث
ومساعد
##صادرة
##ذاب
##قيقا
الولاية
المحددة
للإن
الزم
تتميز
بالعد
بمقدار
##كنا
##وريت
وزن
دفعت
وصفه
الشرعي
ويقوم
الخبير
الدستوري
التقليدي
افراد
تأس
وتنمية
اعتصام
الوثيقة
ارتباط
##ققت
##ظرة
##ساوية
##لاقي
##ذاكر
المحتمل
للقطاع
وفرنسا
متكاملة
آمال
جار
المهاجرين
قيمته
نموا
جعلت
سقف
الحديدية
الحملات
##سيين
حمص
الإبداع
##وسيع
وتكون
اللاعبون
##لطيف
وأر
موارد
الأشياء
غانم
شاهين
عنف
الإماراتي
الجدير
##قاض
الاندية
استش
تجار
الخضراء
##واحل
الفتح
ويعمل
##يلد
منتدى
صن
النقطة
بنقل
الأسرى
متمنيا
يتبع
صيف
امكانية
##نافسية
دورية
العجمي
للتع
نات
فقدان
الاطراف
لبناني
##كشف
خلافات
إدخال
زواج
المعاهد
جسم
ورق
تراجعت
لعم
شريك
القصيرة
بأهمية
أحدهم
بآ
تراث
##كاة
بالمدينة
يتهم
الحاسب
إسلامية
تاريخه
عمق
أمني
العلام
أند
المحلات
بجوار
حملات
المطروحة
بعملية
اللات
ناه
حصيلة
##قيد
باحث
توقيف
تغلب
700
وحذر
الاسهم
بمش
فعلى
الموجهة
الشعرية
شوق
مدخل
استضاف
سبحان
الأولمبية
متميزة
##ربات
والأد
لإطلاق
العشر
##داقية
مدين
الكأس
الإع
تقدمه
حقيق
نهائيات
خمسين
##سفة
المستخدمة
##اريين
الإعلامى
متوق
روبرت
##ؤلات
شكلت
قيل
##راحية
تصور
الرحلات
##غن
الاحتيا
تجاهل
الذاكرة
اشخاص
الألب
تكنولوجيا
إقبال
التجار
بنى
فكانت
العازمي
الحادي
النشر
190
##كنة
##توك
القض
التفتيش
للقاء
التقنيات
المدافع
بريد
إسقاط
زياد
تحكم
للهيئة
يثبت
قنا
##la
الفلسطينى
##كره
2018
طنطا
نووية
وحقق
النموذج
الهامة
وعا
##كاليف
##ريه
السورى
والمسؤول
أدوات
للعالم
المصرف
أبدى
##صلات
عر
##قارنة
نظمت
اتهامات
درس
عليكم
النيج
الثوار
إشراف
يتابع
الذهبي
للحوار
التعويض
الألمان
إنسانية
للتم
##مرات
المدة
التأسيسية
القواعد
##رحيل
##عومة
الحار
السيولة
ممثلي
يصعب
ضده
المحاكمة
إصابات
مرتفعة
حرس
يخضع
مدافع
##بها
بعرض
##لسطينيين
لدراسة
الفنادق
تولي
##لكية
السوفي
والديم
الكونغرس
الانباء
##ضت
##الون
بالموا
مكتبة
للسيارات
المحل
للتس
أحلام
##كاف
##لكات
فإننا
الاعتصام
المتابعة
واضافت
##ضامن
الانتخابي
##روا
##مبياد
استشار
سريع
وها
وشمال
##هله
##يشة
البطريرك
الخرطوم
وبات
الأدنى
التوعية
للعم
الآونة
##مراض
للجامعة
ابريل
##59
الاشتباكات
##انتها
##ياها
المؤهلة
بايرن
وتبادل
للجمعية
يمكنه
المفاج
مبت
وتناول
المجيد
انقطاع
جري
ونوه
والعربية
##ساندة
منتخبنا
يرح
المحطات
اميركي
حجر
التحكم
الأردني
الاستر
##وراه
مرتبط
##وزان
فلي
الفرعية
الوزارات
##نازير
الثمانية
##زف
والتطوير
مناخ
لاح
ويخ
الدائمة
##قبات
##صاف
##خا
الغرف
##ولمة
ومدى
التوجيه
ينص
يحكم
الأهمية
زيت
انط
البديل
##هوة
التوسع
بنهاية
الرسول
عبدالمحسن
المستفيد
وجوه
##خرية
حكما
المهنة
بطاقات
##لاثين
تكليف
خاصا
سعي
أسفرت
أرقام
فأنا
نقيب
المسب
المنتجة
رحيل
الهندي
##جلترا
تركيز
لعرض
ترد
غاب
أحزاب
##عباء
والتط
المفتوحة
يحل
سيادة
وتشمل
وأشاد
التسا
ترجمة
##خان
الضرورية
##رتب
المناق
البدر
اسهم
##وفرة
تحظى
بمل
موضوعات
الوفاء
أجرى
الإيطالية
عاز
##جاوب
تتحول
رحمة
##كوف
##ريغ
ذمة
كوب
محليا
والخط
##زوير
قديمة
الفطر
تهريب
##رائق
لمدينة
وشعب
يسبب
ستقام
المميز
التوقعات
اصابة
##فاجئ
شغل
##لالات
نظرية
يحظى
مونديال
##نائس
##بوب
ومنهم
رأسه
##زيم
السنين
بالإسكندرية
تمتد
السرية
رحلات
النش
يتحقق
وإلا
وأبد
عرضه
إسبانيا
شح
يتولى
بالغة
العملة
للولايات
للبطولة
استراتيج
الحلف
##كرانيا
متعب
والهند
##بث
وبحث
والار
النج
أشاد
##تير
عار
السماء
وتضم
##قبض
فالت
الباكستانية
قدمها
حرم
القطع
ودفع
##دعي
إمام
نفوس
قاب
موضع
إفريقيا
هبوط
التصنيف
لإنشاء
يتحول
سح
##ييس
ألعاب
مميز
الثروة
للنساء
الإت
وعقد
عضوية
أولئك
تقريرا
الصاروخ
هت
زراعة
فالأ
##ضل
اميركا
نية
أظهر
شهدتها
التأكد
والنا
بالإن
الاحتجاجات
##ويع
##قسم
##لاميذ
القمح
##وكس
##بادلة
##وقفت
نعمل
تعطي
للعلوم
والوطن
المساحة
السابقين
ودون
القصف
نقاش
نداء
وللم
يفتح
الفيروس
يرجع
لكنهم
حلا
الصحافيين
وول
##ئمة
كثرة
الانضمام
المجلة
سببا
##قاسم
يناقش
ملفات
التخلص
الخت
بورصة
المتوا
السياح
المستع
ممد
##وريد
تعبير
1992
##ركيز
الاسعار
تشهدها
ولأ
لعدة
القدرات
جسر
اغت
##كريات
لفر
##جهيزات
##وتة
تذ
أميركية
المعارك
صفحات
##وهم
##وعت
##نائه
تعلي
والدفاع
القارئ
والغاز
##خصيص
بتوفير
##اصلة
ايجابية
##شاب
المميزة
أحياء
##طراب
اسباب
##ابيب
##رافيا
##زان
جامع
الأسط
بوصف
##سياسة
##أسم
استطلاع
مراسل
الإفراج
##حرار
سيطر
مصرى
الرصاص
الإسرائيليين
بوابة
بطرس
سارة
لرو
بالأس
##عدات
محدد
طلعت
المرشد
##وعب
الماج
للمنطقة
علاوة
قرن
أسوأ
واليوم
##أنف
النقيب
الرشيد
للمع
للأسف
دعما
الفلس
الاحمد
تجنب
صفير
عرفت
صيد
تتوقف
##ئه
السلمية
الجر
الاصابة
المسلحين
بحقوق
##مارة
الذاتي
حرارة
الإثنين
الكورية
ومحاولة
موقعه
اتخذت
##ائنا
السبا
استطاعت
فائدة
وصوله
##جيا
##ليد
الزع
مسعود
للتح
والبحر
##وهات
متحف
##مسة
##ربه
التسويق
عملهم
سج
برف
##ئها
بالذات
اعتراف
##ولو
لاعبو
بإجراء
ناقش
الأهالي
حاف
قابلة
شهريا
الحكيم
بتق
الاشخاص
اندلاع
واقتصاد
بالله
##كيما
داني
سعودية
ولما
##صية
المصانع
الشا
##ينت
وانا
نارية
##هنئة
يسير
نيج
الواجب
آراء
مفتوح
##براطورية
الاطلاع
الأدبية
الصحفية
##هدئة
أتمنى
تصدير
المبت
رئيسي
للخروج
البنات
عندها
مواجهات
القس
صاحبة
##بح
مخرج
أيا
الثمان
وضرورة
##حدثة
لزيارة
العي
موقعها
##قتنا
المؤشرات
وستكون
تدهور
والعلوم
الإشراف
شباك
ثانوية
الطل
تسع
خطرا
الوزاري
##تية
المساهمين
العاج
يه
الفائزين
الجزاء
##وضي
المثل
مملكة
لاختيار
تما
وكأنه
##بحث
##وريس
الهام
قتلى
##ائعات
##كوزي
التقاعد
تشعر
الأغلبية
##ابيض
والمتوسطة
بكافة
نوعها
عدن
ضخ
##ارتي
بدم
سائ
هجر
الفردية
بثلاثة
معلم
##ستا
يمكنها
الناج
##re
اهل
يعرفون
قصير
تتمكن
المسؤولون
مؤسس
العطاء
تجاوزت
عرق
ويحت
سيدي
الزمان
##شرا
##ولار
الاسد
بداخل
كهرباء
الزيتون
##رول
الولادة
مظ
##عمق
أحسن
ويذكر
ويبلغ
تنظر
المول
خطف
آفاق
الطبقة
الاند
يمكننا
الأحكام
الشتاء
##غانية
للاعبين
نشرته
##ريطانيا
مناه
هولندا
لون
ليلى
##لقاء
اسمها
##اخرة
وأخذ
##وساط
تورط
الباحثون
الاهداف
البند
مجالس
كوس
الخمسين
نجل
وردت
المرصد
البيوت
تمسك
الاتحادي
بإنشاء
نصب
ظلت
جند
##فالية
محام
أخطاء
تعاقد
التا
استعراض
استقالة
للمملكة
##ائرات
وتقوم
لمركز
أجر
بالشكل
العضوية
إيمان
##فون
وممثل
حصر
##يدين
منير
شاشة
أبيب
الجاه
ايطاليا
بحل
الذكور
حجز
رود
الشرك
يرأس
##MT
ينجح
متقدمة
فريقا
والمشاركة
الضروري
الآراء
##لاه
الجدل
##ثرا
يعقوب
ارتكاب
##رقابة
منط
##روبة
مسلحين
نخبة
##ودع
##ثيرا
##طارات
##رائها
مسلحة
1991
الإنقاذ
##رقى
أبا
لبرنامج
ووجد
##قابة
الترشح
يغادر
بنيامين
والخاصة
عبداللطيف
عملي
هزيمة
##حاديث
حديقة
البلديات
عالي
لتصبح
الصيفية
التسوية
أسرع
عيون
وارد
وأصبحت
##ؤية
سأل
ترفع
ذهبية
سبحانه
لعقد
##شه
تركيب
والتف
سكانها
هير
##فقت
الذكية
يفهم
النطاق
صفة
الغرض
فاس
تخضع
لنظام
المند
البحريني
وبرامج
يمثلون
متفرقة
تحفظ
##طرح
يشغل
واخ
المصنع
الكار
المتحف
ديون
جين
##نائى
تستحق
للآ
مغادرة
أجن
المعتمدة
##ونت
المتظاهرون
معربا
مزارع
المشاعر
التكن
أجمل
مهنة
وتقد
الخيار
أصلا
موقفه
الحسابات
النظافة
الملايين
الراحة
طريقها
تدرس
وحث
لكافة
رونالدو
الأسنان
الاعلامية
مراعاة
اوضح
الأميركيين
والاجتماعي
##سبا
نيكولا
صحيحة
المصاب
نخ
لصحيفة
حرك
والصين
رو
أشد
كهرب
المتر
للنف
محاور
المتد
إخطار
الصفحة
أنك
المقابلة
##ادين
دوا
اعتراض
الانتشار
والآن
الإقليم
لادن
##حاكمة
بوضوح
اليومي
الأوقاف
الاجهزة
بسعر
الجمال
والابت
اصدار
وعي
العادي
رياضية
التصميم
أحرز
لافتة
وتوقع
البرادعى
يصر
##طوي
علمت
انضمام
سيقوم
فوجئ
طريقه
ترخيص
##التها
الزوجة
السينمائي
##نتائج
بغض
غز
##ساسة
بنادي
وكذا
ويتوقع
التسل
جوية
يستضيف
مرد
والآخر
الاشتراك
والاستثمار
ويشير
##خلاص
والمقيم
الحين
التوقف
##روسية
طلبة
فساد
##رضا
الفراغ
متعلقة
ثبت
الحلم
للمشروع
الأوروبى
سويسرا
##شم
يستعد
تخفيف
الفل
النعيم
البعد
مصل
التحض
بلاغا
وأق
مستحقات
والتنسيق
الإمارة
بمجرد
دفعة
العال
لتج
المبيعات
وروسيا
بالتالي
وتطبيق
الصيانة
والمالية
ماهر
اللحوم
بأحد
والبي
اليمنى
مرتبطة
حلقات
##فري
مظاهر
واحترام
الاستخدام
الإرهابي
المحمد
جدية
##غيب
ينتهي
ايلول
##سقاط
لعلاج
GMT
استثناء
##يسير
لنادي
دوليا
للو
الصهيونية
##تمرا
المزارع
لسي
نفذت
استهداف
بأكمل
الجس
ابطال
بارتفاع
##صبية
مخالفات
##يداع
الراشد
التعريف
وحمل
المئات
الصل
راس
بحي
ثابتة
كيان
##مولة
الاحداث
المرسوم
##قلا
##ضيق
أساسا
وكر
الاقليمية
تنص
نهار
140
تيم
ميونيخ
##حمة
##وهة
##اصرة
ماء
فوزا
أثبتت
##قرى
مبكرا
مقدمتها
##صرت
ملابس
وضعه
الصعود
عرضت
أنش
##جمان
##60
الفقراء
سط
الكويتيين
تثبت
أسيوط
للطلاب
الشفافية
الخليل
سهلة
التبادل
الهواتف
ودية
أوقات
##شرقية
عنيفة
والشيخ
تضمنت
##ساهمة
الجماعية
رأيه
برغم
فجأة
تسمى
جذب
لاعت
##نمار
بمت
أركان
أنقرة
الحضارة
لاستخدام
مسيرته
##وفين
فهذه
نجاحا
والاتصالات
طاولة
يده
الاستراتيجي
الأث
البيض
والشع
يصف
##ضن
الجيدة
الشراء
أساليب
الرشيدة
##ونج
الابيض
الإقليمي
رض
مسؤولة
الاحمر
جمعت
وكم
تتيح
ودي
البضائع
قاله
ومه
الاموال
الرشيدي
توما
وور
##جزرة
وتمكن
فلماذا
##el
المجتم
أطباء
وضم
02
##لماني
##يتو
##ويش
##تيك
شريط
##راعي
##كتات
ينتم
الصعوبات
باف
التخصصات
كين
##ردن
الكلي
التجديد
اتباع
تأهل
##وقعت
للرجال
##جددة
بتكلفة
الطيبة
لكأس
مقال
##10
اسماء
كانا
ويضم
الانتظار
للبت
العالمى
##ماه
الاساسي
##فيظ
انقلاب
لآ
مستوي
المادي
التفاهم
للتعامل
الصلاح
##وفيتش
الحرص
تمديد
الفائت
وتضمن
متصل
##ابيا
أبعد
المنصر
التحدي
لبيع
بكم
أجنبية
اقترح
استجابة
يتعامل
يتمثل
07
الإنفاق
الحدودية
قادمة
شق
مرزوق
وكنت
كلف
المرء
نأمل
##ابرة
الانتفاضة
الجماعي
علامات
##ظيفية
##هرام
ستقوم
دائمة
مشا
##ؤمن
##قون
بام
نموذ
والاستفادة
تام
الليبر
##بيوتر
بعده
الصمت
الافريقي
الجمل
هائلة
رايس
المهندسين
مفاجأة
##وراني
بديل
القيادي
أعض
بتحقيق
وكتب
إبريل
النصوص
##هانة
مزيدا
تداعيات
توس
النقاب
قنبلة
للخدمات
وفدا
منازلهم
اللطيف
##ولها
يبد
الهزيمة
شعبي
لاستكمال
فليس
بجدة
لإنهاء
برم
##عيشية
##عمة
##بيعي
باج
دونالد
بوست
الاعلامي
المؤتمرات
صر
##شخاص
##كيلي
اهتماما
والهي
يسيطر
زيدان
التعديل
عالمي
معبر
بفوزه
للعب
06
العفو
الكبد
تسهيل
الأمان
الاق
البطل
جميعها
الفندق
##تمين
ميس
##عداء
وشر
أنور
سيارته
المحاسبة
##جى
المكاتب
بغير
وبخ
الحرام
للمجتمع
##ئنان
الفصائل
##رضى
##اربين
وائل
يلزم
أصدق
المسائل
البشير
الاث
##وزن
##هبة
الخاط
الصلة
##يدى
الانكليزي
وحزب
بقيت
السح
بتف
المعنى
صيغة
بلوغ
مارت
تتولى
##ed
##تهية
سمح
للاتصالات
##يوانية
وجوده
عليهما
والمسلمين
بقتل
اجهزة
ينتج
بكرة
العامين
1993
منفذ
العظمى
05
يستهدف
لمنطقة
##ثلا
لجامعة
أخذت
أعمالها
الصومال
العار
##ينه
مواطنين
الكوادر
تنسيق
##ياتهم
نفسية
المهام
##غني
تسببت
##تازة
لمثل
ذهبت
الجنس
##صود
الركن
##طنا
هدفين
افغانستان
الجنسي
##لزمات
فقر
والنف
وخالد
فتحت
##هدوء
اندل
متح
المستهلكين
##يكاني
تفتح
##80
وبإ
تصحيح
##يدز
الأقباط
##جزء
الواس
مدني
شعور
##جميل
حيا
الاعتداءات
##ئاب
التهم
كليات
##et
##يول
الفتاح
غسان
الحادثة
وفرض
قنديل
للاستفادة
أذ
##يتام
اسبانيا
مكاسب
##بته
الرأى
##سارة
اللى
فيليب
التشكيلة
##يتا
يعزز
##عوبة
##ودين
تعيد
يوضح
ونجح
المقيمين
بالقوة
تحديات
الاخر
الحبيب
الانقلاب
الوقاية
مرضى
محفو
مصاب
مستقل
للنادي
المونديال
الاستجابة
للتأكد
##سمة
استنادا
وإسرائيل
المتنوعة
وحرص
##لفزيوني
##اقية
تدفق
عاطل
الاطار
حوا
التصدي
اطلق
السهم
امتلاك
فرج
علوم
الشئون
الكثيرين
القطيف
##ing
تقليص
العر
شكوى
صدارة
غل
المطاف
وأنت
بأسعار
رواد
والسعودية
حمادة
##انياهو
##يلو
ومراكز
الدماغ
مشاهدة
تهمة
مؤتمرا
ساركوزي
##وابت
للسكان
البطاقة
سياحية
نظير
##خار
ووقف
##روه
يأت
الصحيحة
سداد
القرض
الجار
تغطي
وطب
ممدوح
الخنازير
الصناديق
رفضه
اعتقل
استثمارية
ورؤساء
اليسار
احداث
لدور
ليبر
تبذل
نال
شاعر
العاص
##ou
وجهه
وكشفت
اجتماعه
الجناح
مكثفة
##زول
بمساعدة
1500
الأغنية
المعنيين
المحور
التسعين
##لاغ
لخوض
##يليشيات
المعن
##ريضة
عادية
ائتلاف
تحديث
وني
##واكب
الممن
شرقي
الالمانية
مدنية
الشهادة
معارك
بتطبيق
هان
ووسائل
نعلم
اقتحام
ونائب
معاهدة
الدواء
##تهاد
تجرى
لاتحاد
ورش
وتركيا
الراغبين
غربي
الدوليين
بفر
رجلا
نادر
إجازة
يتميز
نفت
زوار
مطلوب
وطل
تفسير
قصد
الحركات
تصفيات
يتع
##طاحة
والكل
تحركات
بلال
##افيا
الأجنبي
إحداث
العمرية
يقتل
انتخابية
##كسون
استضافة
حشد
والاط
الادعاء
##ليص
صيانة
والحفاظ
المعاصر
شرائح
الناشط
##يسكو
بسيط
الحاس
وأفادت
##رامات
بالمخ
وتفعيل
وعاد
الانقسام
بفتح
##وعين
هجوما
يقتصر
وتساءل
##ثيق
ويعود
تتناول
##لز
بروك
يظل
##رتين
والياب
الإسماعيلية
ونفى
ينفذ
وقطاع
فانه
البلجي
حداد
سلب
عرضة
قضى
الفشل
الإنجليزي
##قصاء
وسبق
بالجامعة
أقسام
نوعه
كفا
الكليات
لإح
منوها
##شون
الجلد
للوطن
التحريات
الرسمى
##باري
لاتخاذ
للشرطة
يهتم
اجتمع
يأمل
الشيعة
بالز
بمستشفى
##تار
دبلوماسي
##دال
يسأل
أصاب
ميركل
وتعرض
مازن
##زويد
المهد
تون
##روقة
##ضاح
المخالفة
الجابر
##عياد
##لان
أعمار
معاملة
الإي
المخاوف
بنشر
ارد
##جرات
##رابطة
الملائ
الاسلحة
##قبول
راح
##لها
هاني
والمياه
##بري
يستفيد
لدولة
لتحرير
الصحى
للرئاسة
المواطنة
##ابدين
للكتاب
130
المعاملات
المركبات
والكويت
##رقب
##وكيو
##رائه
المنعم
ووصل
عندنا
والمنطقة
طاقم
للامم
فص
تنفيذه
الورشة
##أخذ
المساواة
الميدانية
##راعية
وماذا
يسقط
ناديه
##بادر
الهدوء
الممثلة
##سرعة
مسبقا
استخدمت
ايف
كد
المبادئ
##قاه
كيلومتر
تأثر
ودم
##راهية
الاختلاف
##وقين
كرك
وطالبت
الطمو
الظلم
ويقدم
##كشاف
وحضور
بشير
الزور
فاست
بالاش
قائم
معالم
شمالي
ودخل
يصب
##جلوس
مستشفيات
##نس
وأصحاب
فايز
##سمح
##90
المواجهات
المزارعين
وعشرين
محاربة
##حتهم
والصحة
قضت
يرون
الصبر
كيم
بتوزيع
والاس
وبالم
القائمين
أرب
الحربية
##نائها
التطبي
العمري
الشابة
تأخير
##وتو
بوا
والمعلومات
##فلات
الفرح
فلاح
حياتها
تسيطر
المؤس
##غاني
جهتها
إرادة
تحقيقات
سيئة
فوائد
المكتبة
##واتي
والتخ
التأهيل
بابا
الجدار
قانوني
تفاهم
الامام
والرياض
الغريب
الشرب
تعتزم
وتعمل
حكام
تستعد
الأهالى
الرئيسى
##ليني
كرا
##قيادة
الاستقبال
وتحويل
المشا
لحد
الوليد
جلب
##حصاءات
##هول
الهبوط
##خاء
البدنية
تدريجيا
السجناء
الفقرة
تعليمات
لوحات
##ضيحة
##رافقه
والجيش
##ازن
تصنيع
وانتقد
كليا
وضبط
##زداد
##يقاع
المان
آر
اليم
للبرميل
##روبات
تناولت
ممثلين
بغية
راد
توازن
يقرر
حكومته
وسام
الكيميائية
تثير
التوزيع
فشلت
##شارد
سو
##قطة
الثان
الأغذية
##تبة
اعتبرت
الزاوية
الكهربائي
##قولة
##يغة
استبعاد
##اديو
شاكر
كردستان
الملت
فالن
الامتحانات
للنا
الجبيل
ناجحة
##غناء
الثنائي
وتمنى
جزر
يفس
حادة
الاجنبية
مندوب
ترشح
يسهم
##هاكات
##بارك
المتعلق
المدف
المساء
الاقتصادى
تنشر
نصوص
الشبان
التطبيق
خوف
##طرق
هنالك
متوسطة
المناسبات
##عطاء
وتراجع
توف
المبادرات
تنتج
##ليح
الإدارات
الدوام
والخاص
الوالد
##ريبي
للنفط
ارتك
السيادة
بمرض
مرشحا
نظيفة
##برام
حادثة
##سنال
رياضة
##قدس
جيمس
مايك
إثارة
المحامى
تربية
##ضحك
الجوار
ليفربول
زملائه
##ؤهم
##اعتين
وإيران
التميز
وفاته
استح
شقيقه
مشددة
##قاة
مداخل
مادية
لأجل
##داولة
صادرات
الاستهلاك
بإح
##ضحت
##غرة
المتف
##سنا
واستمر
استيراد
لاس
الدب
الوافد
لإنتاج
##يمن
يدرس
العقوبة
وأسر
اقليم
الهندسية
بالضرورة
لهيئة
فنيا
المراقبين
اسرائيلي
النهوض
والمص
واعلن
الأنصار
وشركات
الخيري
##هرات
تصعيد
##نتوس
##واجبات
وجنوب
##جرت
##حوذ
الفكري
##اها
والبرامج
اكتوبر
أساسيا
أيها
ونظام
أمثال
##وران
مبكر
##طول
لانها
##st
##22
الحش
##اديمير
بعلبك
تفتيش
ترأس
العادة
الصغار
وغيره
مقالات
الواق
الدماء
نزع
ومجموعة
##والد
يتردد
الوارد
وقوات
اثنان
للسلطة
##طلاقا
الخرج
الأعوام
وحاول
البرج
ألقت
بدعوة
شريحة
التحليل
المكسيك
نفط
عسكريا
حمدى
المنزلية
والعلاقات
تصب
استراليا
##فوا
وأمن
##وكة
الاشارة
##مح
##تيبة
والسب
##كاسات
التنظيمية
للمحافظة
وارتفع
معمر
والشرطة
المحمول
وتوجيه
##ملا
عاشور
واللاعب
##طعمة
رفيع
عبدالكريم
تتجه
##يافة
بدرجة
قطار
سال
##صرا
المذ
اسر
مؤس
تقنيات
النهر
لذ
نهج
الصبا
##غلقت
مؤكدين
##ضباط
الأبطال
مرب
المسلمون
مشكل
##مأن
كويت
الإيجابية
السعادة
قدرت
قار
ساخ
المناهج
قابل
مسؤ
النجا
الآباء
خيارات
الإرهابيين
للدراسات
وند
##دياد
مباراته
خطير
##لاسي
حملت
180
فبعد
الرائدة
مديرا
شام
بالدولة
هذين
ذكره
ينتمي
التغذية
ضحية
التيارات
الاداري
صافي
تشار
حقل
بنود
الضحية
##قاعدة
##خصية
فاضل
ماك
للعلاج
##اهم
نسمع
والاعلام
##ورنيا
نتانياهو
##سيمة
النسائي
##دمان
الرامية
والبلد
##اعب
الصداقة
حياتنا
##أتي
##بيح
الجالية
##لائها
الناشئة
والفنون
صلاحيات
ويا
مود
الآلية
الحاصل
علمي
جادة
##ol
اللغ
والجهات
##رغم
##فذة
##يفية
بالسي
الأثرية
بالمشاركة
بنية
حصد
بحجم
متتالية
بتسليم
##غافورة
وتقدير
جنوبي
الدراما
جماعات
##فيت
ازمة
طموحات
واش
ابنة
التهديدات
مبرر
##فاز
الترشيح
وجهها
الاز
زميله
##غلو
مصد
ووك
تصاد
ترتبط
##وردة
الأرضية
راحة
ليسوا
مرافق
تشري
التعرض
قصائد
بإشراف
بى
##نكر
الكرامة
وتلك
العسكريين
بإدارة
##حواذ
##وهاب
باشا
المستدامة
##ومان
سقطت
ظهرا
مصانع
ومشروع
السعي
عيان
انتقلت
يسبق
تتحمل
قدموا
العاط
أولاد
ارها
أكاديمية
الأطلسي
##فزاز
أبحاث
المهارات
محدود
انتقادات
##ريش
##سها
##بوت
كريمة
البيئي
عنده
للموسم
النظامية
جناح
غريبة
مساحات
اكدت
##نيش
أمامه
##كاديمي
سرطان
الكائن
زمان
##سيج
110
مهلة
البنزين
استعرض
الجسر
يقرأ
المخالف
نعمة
##اصد
الترجي
##يلاند
تعديلات
شهاب
مفر
الافت
وإخراج
##ورانيوم
للوقوف
المحضر
##تهر
قياس
وبهذا
##دونيس
شف
تسهم
الثمن
المثقفين
وسا
##قن
بالأح
والاهتمام
أكون
##جور
خريطة
وغال
##واطئ
خبير
الفقيد
الوفاة
الموسيقية
تعطيل
##il
لأى
وبالتالى
النوعية
التوظيف
ومف
كير
##جرى
مشر
وهن
نشاطات
طيار
لانتخابات
الطابع
عملاء
فلاديمير
##غراض
##يفاء
ككل
##وامر
والتد
##صدارات
بوجه
##حرم
إحياء
##انيات
الاقتراح
يطالبون
##ويتها
الفهد
محلات
زعماء
المرزوق
##متع
عائشة
##وريوس
أوكرانيا
العملات
##سبان
##جيد
رائ
##تقي
##بون
اختلف
للحياة
الإسبانية
تذهب
نقله
ينطلق
للنظر
##ختار
محاول
##بتهم
أصدقاء
بتوجيه
مضم
##رتبة
##اور
##رفت
الوظيفة
الاختبارات
عربيا
##ذاء
الروس
برأس
خرو
المستوطنات
نيجيريا
رأسم
انخفضت
المتبقية
ولكننا
##جيكا
##25
بالتص
باقى
بطولات
الخليفة
السكري
الباحة
يتفق
##امع
الخلف
برنامجا
تعتقد
جاد
##ارتقاء
الشقيقة
بلادهم
الدولتين
##جدل
المدرجة
اصلاح
وختم
بلير
احتجاجية
الطلبات
أرضية
ليتم
للإعلام
الخبز
تهتم
فقدت
الجندي
الصديق
اعلى
البعث
اعتقلت
شيع
أدرك
##جهز
##ورط
يوجه
المنح
اللاتينية
##اتذة
الموحد
عاملا
أحدهما
##نيم
الفرنسيين
أشعر
##قوا
##رميم
الكفاءة
##ريبات
##صاح
غو
تظل
طابع
الملاح
النشاطات
مطلعة
الإنجاز
المفق
بشرية
الغير
التعذيب
يتسبب
أقوال
السامية
يختار
استفتاء
غربية
صعوبات
الاستعانة
الحجر
كالت
للعاملين
خوري
للتأ
##صوات
المشتبه
نقدية
النقابات
إضراب
##الها
يحملون
##فكار
والدراسات
اشارة
الإج
يبر
منصة
##ليقة
وتغ
وقائع
للصحفيين
التلوث
الحضاري
بامت
##14
المسم
الإجابة
الاميركيين
عجلة
زرع
تأكد
وتأمين
الشيوعي
والتاريخ
والإس
نماذج
إذاعة
القادمين
الاولمبية
مواعيد
يقدمها
الازد
للمدينة
تؤمن
والنساء
طاب
تشكيلة
هدم
بكامل
زينب
متد
بدفع
النامية
توقفت
المؤكد
يربط
توليه
الما
تزداد
الشباك
##فاقا
الأرز
##وهاج
##ثف
##حقاقات
تكلف
ساحل
القياسي
التعيين
الأجيال
الجمارك
مؤلف
ولعب
يوافق
يرتبط
جوان
طوكيو
بعقد
الاستحقاق
للتأمين
للاعت
##مدادات
مقبول
المحافظين
تبا
الغناء
لصاحب
والاح
##سيوية
شراكة
ترتفع
حقوقهم
##رائط
وأحد
##ابتن
جيب
المنتشرة
بثلاث
نموذجا
تدل
الضع
وقتا
التقييم
صناعية
النقابية
نحت
الوكيل
اصل
مكونات
مسقط
مضيفة
التطرف
الدموية
المتمردين
##اطب
ورس
النظرية
ثلث
الأدبي
الاسرة
بيتر
وأربع
الهاجري
والمف
المقترح
للتدريب
الترويج
فعالية
##روكيما
للدكتور
##70
حوض
تتوقع
إجمالى
##وظفين
بعمليات
وزوجته
الضابط
للعراق
والمنا
فوزي
الفاس
طاهر
##جمعة
المنطق
##قش
والمناطق
سرور
يفقد
وكأنها
حاتم
ولدي
تزوج
تطرق
عزل
لآخر
مكانه
##رجاع
نحتاج
موحد
الفحص
الصحافي
##موض
بالفر
مرارا
المعيشية
ترغب
المؤقتة
أجاب
يحتل
آمن
متوقعا
الضخمة
##راط
واعتبرت
اقتصاديا
قصص
شعارات
تشبه
الأزرق
تأش
يمتد
وهد
##ضرا
معاليه
بدقة
##علمين
##نيست
وته
قباني
ناب
المرش
##غد
اصدر
الميناء
المقامة
الآداب
آمنة
الاستطلاع
##قطت
لنفسه
استقالته
##وعوية
احتفالات
##اضرين
الصحفى
تسويق
##nd
راك
الآتي
الفيوم
عشية
حاجز
##وفت
فاج
الجولان
رائد
منسق
وحركة
المنيا
##يراك
##رائد
العولمة
يتناسب
بتسجيل
الطقس
##om
منتخبات
السلمي
##ريين
وألقى
فضاء
##فراج
بلاغ
##بطت
التقد
المعطيات
كثافة
بالتعادل
المسافرين
الكروي
نقوم
الانتباه
جال
التنافس
توصيات
داود
مقترح
حضره
لغير
المفتوح
##على
أخر
لتمويل
السما
بعضا
ولابد
أفر
يؤدى
##شارع
الارتقاء
وضمان
بتج
استثنائية
##فظة
صغ
##يدون
بمنع
##راوية
المتشدد
مقعدا
المما
برنامجها
##ئذ
سع
##عاقبة
طموح
الجهراء
التوصيات
بون
تعنى
وجودها
مواضيع
علاق
معامل
لتطبيق
##هيري
##سيان
المعاناة
ومحا
الإش
##سيطة
##خبرة
##خبراء
##يرلندا
بالتح
وأمام
وتبلغ
المراه
التقني
والعل
المهن
النخبة
##شآت
##عاملين
وإنشاء
ينقل
ميسي
##هض
تكثيف
مجتم
المظاهرات
1948
الانتماء
مرورا
##تناع
ذاكرة
أستراليا
أحر
الاستئناف
تحل
نتمنى
التكلفة
بروكسل
يخل
##زعة
وبريطانيا
إله
والقوى
##يده
مطب
حبس
رين
##شمل
والجن
مذكر
سجله
معان
##وجات
بنات
جامعات
##رحة
بانتظار
##اديا
##وانه
والبيئة
تألق
سفارة
المحلى
##خخة
ومستقبل
الإسلاميين
الحظر
حققه
الدمار
يتغير
استبدال
##حاتة
وانته
ويعتقد
الصليب
إدارات
عطية
##وسيا
سند
التذك
خلايا
##التهم
بهما
دماء
سيناريو
##هية
ومنح
الإسعاف
أرضه
الأسماك
الحية
##ؤثر
يستطع
الأميرة
التعب
##امو
##امس
الانح
لوزير
والثقاف
السلبي
عبدالوهاب
وشهد
##لعاب
كاليف
يضيف
الشهادات
والمتم
فعله
الشريط
##عارف
عرضها
##انين
وجرح
المفروض
##وازنة
##بره
الانتصار
النبطية
وسبل
انواع
المليون
زاوية
رأسهم
للتربية
المنهج
عائلته
ورم
خارطة
##سلامي
بالنظر
بتد
قف
الهيكل
ستار
عبوة
الطفولة
الكردية
المحليين
للدور
##بسه
##طمح
المحقق
المشروعة
بلي
اتصل
مسم
شرب
الوص
بديلا
لحم
08
تتكون
واستمرار
زكريا
طرحت
##يبا
اجتماعها
نورة
واتخاذ
البرتغال
شعرية
مبكرة
هنري
سرعان
اتفاقيات
بتوقيت
قرط
الغالب
ومقر
الكثيرون
وقطر
المشرفة
الفعلية
##توكول
ويسعى
لأداء
الطلاق
##رفي
350
سيدات
فعليا
نقلا
أعلم
وقل
والعرب
تجن
البلاغ
لأصحاب
##حصائيات
##12
الإضراب
الحاكمة
ناهيك
إقناع
البوس
وطرق
##قاتي
الإقامة
وصح
القصيدة
لخط
اختراق
سهل
قاضي
هيكلة
بالفوز
بغرض
##قيف
فتحى
الطاولة
اقرار
##40
القطار
##رون
##بعا
مسمى
تترك
مصن
ومحمود
ماج
بأسلوب
##جاوزات
لوح
الوهاب
التصعيد
شرعي
##كاس
دوائر
للناس
السيناريو
قراره
لمت
09
##15
كاس
الإسماعي
زمنية
مقومات
الربح
##وطات
انطلق
##يديا
إغ
سويف
الرحيم
##خراط
المتواصل
واهتمام
##يتنا
##ومن
1982
دقيق
عبرت
ابي
والإسلامية
ألي
شاركوا
المواصفات
الشيعي
بجهود
التسم
كاليفورنيا
الطيار
تسمية
خلفا
بركات
##خذه
أليس
مزد
وكت
والنقل
الاستيطان
أعراض
وفت
القصير
وتطور
مطلب
##يتان
بتطوير
الطائفة
يقصد
يبت
تبعد
واصفا
يتوجه
##وحد
بتخ
التكريم
نيل
خي
مجان
نوبل
سماع
وكبار
##لسي
يحاولون
يعترف
المحلة
المسجل
##اعم
يدي
إيف
الإله
سيعقد
بإلغاء
الاتفاقيات
غام
بحوالي
تاريخها
المعاصرة
للبيع
وبحضور
##شيا
أوسع
المسافة
يفتتح
التعليق
لتشكيل
بمثل
وقرر
##جلب
الضعف
عاطف
##عيون
وعمر
مجتمعنا
##حرس
هانى
واث
تتغير
ووجود
تنته
والفنية
طلبا
the
ازداد
للاقتصاد
ثماني
التموين
الإنتاجية
اسط
##نك
تحذ
قراء
يغير
الشحن
الطوائف
لدخول
ممارسات
بدخول
يومية
الناتجة
برك
هدية
الاحزاب
أون
وفاء
أنفسنا
العنوان
وتطرق
##ضاعة
لاخت
الفجر
دعمه
عمليا
الغزو
الحسيني
##صون
المواطنون
كح
للعودة
##ددها
طالبة
والكهرباء
بضعة
يفوق
المقاعد
الإدارى
ومنا
مختار
الثل
الإجمالي
إنجازات
العالى
إحالة
يرتفع
##بدا
##قاتل
ولدت
اليومين
سلط
لقوات
الأبناء
##مسك
الأض
##خلى
الوصل
شحن
اللافت
واشارت
##طنه
##رائهم
الشاشة
المعالجة
أسوان
لمناسبة
بالخارج
الواسعة
الأوكر
باتخاذ
الجوف
الغذائي
الدنمار
بالواقعة
##كرين
التبر
##صن
أوجه
أرامكو
التعليمي
المنصرم
توضيح
مدف
البحيرة
الأسابيع
لبر
مليارا
بشركة
أرجاء
تلاه
كلفة
وبالرغم
حت
يسكن
ثالثة
اليونانية
الحرم
شحاتة
باس
المدربين
بتعيين
والسياحة
##ملوكة
##لاحي
##رتس
سيخ
استدعاء
برون
البث
لدوري
شقة
كيري
##قهلية
للأمن
درعا
التليفزيون
لسنوات
كتابا
ريتشارد
محفوظ
##جازر
وتأهيل
##اتا
ارسال
والحرية
عطلة
فرا
##ذهبية
تجاري
أمله
يتكون
جوزيه
الأديان
اعتذار
يقدمه
للبنك
الأركان
العبا
##بدل
وقدمت
الميز
مخصصة
يشرف
ويستمر
ملاب
الفضائيات
##تكم
##فريقى
##عنا
السويدية
بالاتحاد
والطاقة
لسل
جاهزة
مصطلح
الكردستاني
الطرقات
مستعدة
يلقي
##انها
كوك
الرئيسة
##سيب
السبيعي
##فار
الضرر
لتنمية
حازم
##حوصات
الموقوف
وتهدف
الضيوف
رائع
إصابته
نل
الاستهلا
##روت
يكمن
كريستيان
تحقيقا
وتأثير
##فاظا
وتؤكد
المفر
حش
تقود
النقص
اللغات
الأصلية
السنية
بمتابعة
المبذ
##ent
الكثيرة
الاكبر
اطلع
استقطاب
منك
نض
موبا
أوروبية
الخرافي
اصيب
توعية
المتطورة
رغبته
##ويز
سلة
منسوبي
شل
##سوا
الكيما
أشياء
##زيق
بيريز
نتحدث
بارز
التوقيت
لاقت
ديب
##ch
المعاقين
حكومي
الطفلة
جنايات
وكن
هدفه
دستورية
ضيوف
علق
وقطع
موضحة
طور
##قراض
انحاء
الخريجين
المواهب
معظمهم
##بلدية
والاخت
وتيرة
مكعب
استيعاب
##وسيقى
٢٠١٧
##rab
تجميد
##طمئنان
والهيئات
##ماعات
والعودة
أعطى
وخارجها
كثيرون
أطول
تار
التحضير
ساد
اليورانيوم
جهاد
المتقاعد
جنسية
تمكين
مخاط
##عراض
مثال
المتكررة
أخط
والمواطن
ماليزيا
القدر
باح
##وثيق
مقرا
راتب
##ذهان
والدته
##ذرا
وإقامة
ويبقى
دبلوماسية
بصرف
المتطرف
##ضاءة
سرق
الرفاع
واستطاع
العشرة
زكى
الالعاب
المجد
وصفها
طفلا
برفقة
لقرار
مواجه
العصور
##دود
جوه
اللبنانيون
ضعيفة
##لاند
شرم
داخ
160
تقديرا
الكتر
المعدل
##75
صعبا
الرمض
ألقاها
لكنني
##كامل
ويهدف
والفنان
##قفال
توجيهات
الاحتراف
الاستقالة
تشهده
السويسري
حددت
مكافأة
والتقدير
ملكية
نسعى
بالسل
الدعاية
الحدا
للمؤتمر
ولاسيما
الخلل
وبالف
الخطيرة
حاسمة
##يثم
التفاعل
قادرا
##بني
الثقيلة
##ثا
المعدة
سمي
للصحافيين
##فاصيل
والتقى
باقت
تظاهرة
عجمان
والاقتصادي
اصاب
القلعة
التعاملات
##ليو
الباكستاني
منظم
الإنجازات
تتر
##روسة
وشكل
المسرحي
للمساعدة
وأثناء
ويك
الزيارات
شرا
قروض
##زيج
مريض
##ريكي
لير
والتقنية
الخيارات
إثبات
حاد
##ثقف
توماس
ولذا
##وافرة
والمقيمين
##احف
##عاقب
فيروس
##نم
الابن
الدورية
##عيان
فتم
وتستمر
أوضحت
السيئة
##رافة
المعدنية
القاعة
وسيت
جهودها
موجهة
عديد
المصن
بيس
##جتماع
الكول
كالم
لإنقاذ
استلام
الافريقية
وبخاصة
العقبات
السينمائية
##مسين
##ربيا
سلا
أنهى
اليسرى
المطاعم
تحصيل
الفلسطينيون
الإناث
للمخ
حياتي
##بقاء
##كلترا
فراغ
تشخيص
المعارضين
وأعتقد
أوساط
بحالة
الظهور
قاض
وفلسطين
قديم
وخدمات
البق
##سيه
متهما
بطريق
يجرى
ولها
مرسوم
مثيرة
الدقيق
##16
##وايات
فاش
التقدير
استشهاد
داخلي
##يدية
اميل
ممكنة
##فسير
##خفا
المستجدات
مطالبين
فيسب
غيرهم
وبأ
يتراوح
توضح
أحوال
1989
أنجز
حكاية
بالصور
##فقات
الغز
مسجل
تسجل
امنية
ومنطقة
##قطاعات
الفعلي
فلسطينيين
أدخل
ناجي
وتعالى
والدها
تظاهر
نر
يجتم
فعند
##ضاعف
شجرة
نفسك
عطا
واختتم
##صادقة
##فاقية
هرم
الفيل
العميل
عدوان
للبنات
شوط
تثبيت
الشغب
معظمها
##شان
المحبة
مساهم
بالخط
الزيت
للمباراة
بسب
كارلوس
الايطالية
##مائية
موحدة
ويتضمن
المناصب
##ادوا
وسأ
لحظات
##طيين
##13
مدنيين
تمي
بريدة
للسوق
ذها
استقباله
الأولي
2020
والطالبات
##يقا
المضادة
##ائلين
يميز
##حكام
منافسه
##وليك
##ائلية
مخالف
المحاضرات
بعدة
التخلي
مجدى
باللقب
زكي
##رجح
بحياة
ببر
بالعودة
التكاليف
جدير
الارهابية
##سانة
وتعادل
##بال
أهلية
طرحها
للبيئة
##ليوبية
ريم
والقضاء
للجمهورية
المخلوع
وابت
التعاونية
العبارة
ننتظر
رقابة
الملاحظات
أضرار
الأهرام
ضخم
إبد
##خات
الفلب
##ضانات
تضاف
الاقليمي
العنصر
##خور
##شاركت
دورته
للسهم
رخصة
لسمو
##مائهم
والوفد
يبذل
أجمع
مستواه
تتقدم
للعديد
شعبة
والاز
الشبابية
تتعامل
القاطنين
##مثل
##ترات
مشج
الأك
توصلت
أوت
هدى
المرتفعة
المصريون
هاتفية
الاحتفالات
ضمت
إنني
الوف
ملاعب
الرواتب
الأسلوب
تنجح
المعدات
Arab
تعاملات
مؤهل
الشمسية
##19
الحذر
بكلمة
جماعية
اية
##تمان
ناسفة
##صريحات
المغت
ياب
##وتش
القصوى
الطعن
سول
##راثية
تراكم
##ئنا
الحارثي
شيراك
جهدا
المقاطعة
الجلسات
ينتقل
السبل
مضاعفة
ببط
الاستعدادات
واللا
أولويات
مراسم
العظام
فادي
نفوذ
ومما
المحلل
الأولمبي
ينطبق
استغ
تحريك
التعاطي
يزداد
المحاولات
صالحة
مظاهرات
ساعتين
أبها
انطلاقة
##ut
الانتقادات
##ct
مجتمعات
لدفع
وإي
أدوار
##ادن
دان
للثورة
والعق
احتيا
الدفاعية
والزراعة
برن
##تب
أغلبية
موف
الجرحى
##غتيال
والنائب
تشيل
الكلاسي
الشروق
فريدة
مهندس
##وفيق
تقدما
العماني
##89
##وطنين
وعبدالله
المظ
السائقين
تسديد
التركيب
معرف
##كاك
دراسته
للدستور
وتشكيل
##راد
ووص
وقررت
الحزبية
صدق
تعاد
ألوان
##قلات
لمنتخب
المنتهية
مهمته
مطالبهم
الجسد
عزي
صارت
الكثافة
أوبك
الاستماع
غذائية
تذك
لسنا
##أييد
تقتصر
والمراكز
الهرم
##وازي
مواسم
بالمقارنة
للمواطن
عكار
الاحتفاظ
واليابان
الأدلة
يحرص
##اذبة
توك
الاستث
لنشر
##راحل
صورا
الورقة
الحيوي
حافلة
تخطيط
دعمها
لجم
الاضطرابات
استجواب
##زمالك
##احي
خصص
##حضر
سى
يتطلع
الجثة
بصفته
سليمة
القاسمي
كاري
الفجيرة
##خفاضا
الدولارات
الكنيست
##زمع
تطلعات
##رجو
##جزة
##زمت
أكمل
يصيب
الوظيفي
بالنادي
كولوم
التظاهرات
##زئة
سلمية
المجنى
##ريفة
##رجاء
##فوف
للدم
متطورة
ووز
نتج
المرجح
بالدور
القطاعين
##شفافية
لصناعة
المطلق
عادي
والكر
أبر
##كايات
الاختبار
كع
سائر
مفوض
قبيلة
اسرائيلية
ويوجد
المفاهيم
موازنة
محس
الامني
وتابعت
سندات
بالعديد
والتكنولوجيا
ولدى
##باني
الجوال
الأشغال
لكى
جواد
لمؤسسة
1988
فيسبوك
الحزن
بلات
نتائجها
وري
اغسطس
يتحرك
نادرة
والمنظمات
وأحيانا
قتيل
كركوك
المتوقعة
نعتقد
ترجم
الدا
والمقا
بجنوب
حماد
النهج
الجوهر
##فعات
وايضا
افاد
الحضارات
المقصود
البصرة
بعودة
وتحمل
خالية
والخليج
القضائي
اعطاء
##باكستان
##وفو
##يرمو
##اريس
جبال
##ارن
احتجاز
عظيم
قدرته
الأرجنتين
##فاح
الزوجية
بارك
والشرق
وإعداد
الكاثولي
والبط
عليا
الفلسفة
النظرة
ونس
##روى
وفض
المشر
العس
المقدس
يوقع
لتسهيل
يموت
##طرد
مخل
الشديدة
التغيرات
والمحافظة
المالى
##شوف
السط
خلل
تضامن
لأعمال
##عميم
الجبال
189
الناجحة
##وسا
دوريات
والدولة
##ثبيت
الثوري
اتصالا
القلوب
فيس
استشهد
##يرانى
المخصص
موقفا
اخيرا
مجل
##رداد
الدفعة
التواجد
##اتور
بالمجلس
فصول
المتس
##ساع
والفكر
##طلاعات
الاردني
جوزيف
وأبرز
المطران
##بلوم
مجر
حيز
آخرها
##تويج
واستقبل
##سيون
والقوانين
تنازل
بإقامة
الفوائد
والمجلس
##ظهور
لهؤلاء
وسر
بتغيير
اجتماعي
سياسى
فرضت
الشعبى
العثمانية
الأستر
الرأسم
جعجع
بمشروع
النمسا
آلام
الفقيرة
مبادرات
اضافية
بدراسة
أخطر
الجمركية
ووقع
رحم
السائدة
طا
##ؤولية
الدقائق
المتمثلة
خلافا
محلي
حبي
الوزارية
فهمى
سيؤدي
##وتين
انتشرت
بقانون
التدابير
##ri
وفريق
خد
##هلها
احتياط
وبيع
دمج
سمعت
التأسيسي
عيني
المسيح
##داس
اسطنبول
يملكون
كلغ
قضاة
يتس
##فاقه
اندلعت
العملاقة
##اصيل
فواز
غول
شعبنا
الزائر
حاض
التنوع
الديمقراطى
##فعا
الحساب
أعط
العمالية
داو
نك
شغ
المتداولة
والنظام
للفنان
الطلابية
بتحديد
##وجي
تطبق
جوار
صراحة
اسا
نمط
الاكتتاب
##as
ترحيب
الأدوار
لجهود
برلمان
##نيان
الكارثة
والدم
والفرن
ومعرفة
حذرت
##سينما
يقر
##بداد
المؤهل
ببطولة
الأمثل
##وازات
العمراني
التنازل
المنتدب
يشاهد
الفات
تزوير
فعالة
##ضعة
وفقد
تعزز
ذهاب
جثث
لقيادة
صلب
ومكان
جده
تعطل
##اليل
جدار
جمعيات
المعتمد
125
المشاركات
زيارات
أني
##ؤوس
الربط
صمت
وحي
مجانا
##متاع
الاتحادات
للدخول
الدروس
يلجأ
متكامل
الدستورى
ضيق
راض
حالته
الاداء
##غتصاب
##عث
وانتهت
وعقب
##رقاء
##مرض
منحت
العمرانية
اللوحة
آدم
أدلة
##فاد
ايه
تدشين
بارتكاب
احتجاجات
تعليمية
أثارت
تقليل
لأنني
جبيل
##آرتس
تأسست
##نادق
1980
أستطيع
التشريعي
خضر
السعودى
##رامية
حنان
ره
##راجعين
نقط
مكانا
تعثر
##هيار
##روضا
الفضل
الخضر
صابر
المركبة
منطلق
ميقاتي
تفهم
الثورية
الإعاقة
ينبع
اعتمدت
صناع
لقانون
الخالدي
قبرص
يركز
الطبيعى
ايار
لافروف
النخيل
مؤقتا
السلفية
ترميم
وثلاثة
بقد
##لتا
وأبدى
الألوان
##شعر
بالدرجة
##أر
الإبد
اير
الفريقان
اقتراب
of
##بورغ
محق
ينشر
أنهما
وبالفعل
باهتمام
اولى
الأبواب
##نيك
اليهودي
الفتوح
واسعا
##ماط
ونتيجة
فست
مسح
زاهر
##دلة
##شغال
أشبه
وسلامة
عكا
خات
وحيث
متظاهر
المخيمات
مسجلا
المزد
وتقديره
##لفه
الترخيص
السلط
##تيت
اكتمال
انخفاضا
موقعا
مفاهيم
##ارعة
تفاعل
اللوحات
وزاد
تتوفر
##وعد
تتحرك
تقضي
الاسرائيليين
فخر
لمراقبة
القليل
الصفقات
وحض
##يعة
الثلاثين
تشي
##هنئ
##شو
والحض
شاطئ
الناتو
##لقاب
عراقية
المصنف
بقطاع
التصدير
تتابع
الأهل
حرصا
التفوق
يعتقدون
التعلم
##ائبة
##رشاد
##ادمة
##خيرة
العزاء
ببناء
##صفية
##منا
وأما
جوي
##اعى
تحقيقه
بخلاف
نقدم
تأتى
بالشركة
##داخلية
برنامجه
قفز
المستفيدين
السبيل
ونائ
أسفل
الإعدام
الأصلي
مشاركتها
والمواد
صفقات
اثار
لبدء
للرياضة
##صمين
حركات
التنفيذى
للخطر
##راخ
لعمليات
وقيم
أبوال
ارباح
أصغر
##ياكل
##موال
وأعمال
عارف
الإصابات
الزلزال
المجه
الحزم
وجبة
هدد
وشكر
اوضاع
المبدأ
رمز
بالاح
السهل
العلمى
فارق
مساندة
##هدين
مناصب
مسئولية
بدت
اسواق
برئيس
الهادفة
شعبه
حصوله
الناشئين
##ذور
والقطاع
الناز
جراحة
للمرحلة
تطبيقها
الراق
لمر
لمحافظة
تحميل
رص
للحركة
معالج
مضمون
السحب
أولياء
والرا
المضي
دلال
##سيو
الاحتياط
ولكنهم
ديمقراطية
والأردن
المنظومة
حرق
إخلاء
المساكن
ستان
نقلة
المقترحة
##شفي
باسمه
إنجلترا
الجري
المنخفض
ينتمون
المنصورة
بالرئيس
عادلة
إخوان
والطيران
والسلامة
الأوب
الوجوه
فيينا
المعني
##قلية
غض
##us
التظاهرة
الفرنسى
اليا
الأرجنتيني
الاشراف
أسرته
ونظرا
وعالم
المتزايد
عاجلة
بدولة
موقفها
أصحابها
اموال
بود
قياسية
##عته
قرأ
درب
النفطي
حصار
بأى
لاستعادة
المجتمعية
بيوم
والرس
##اريف
##اليم
للوزارة
##اجي
المتجددة
وضمن
الغالبية
تعميم
للمركز
الاهلية
##انته
بالحق
مخر
مغا
لهن
مسؤولا
القيود
##حاور
##وائق
لتدريب
يجلس
الهادي
المهرجانات
والثالث
التشريعات
العلامة
السوفيات
المعاملة
أقامت
الابد
المواصلات
مؤقتة
##18
حقيقيا
برق
إيرادات
##فهوم
الناجمة
والحي
الخدم
للجدل
مفتوحا
الإستراتيجية
والالتزام
##ملين
أداة
فرز
##كود
##راما
الكنائس
احتل
سبورت
للخط
##كوا
تتهم
استئ
قرض
ومدينة
##قطب
واجتماعية
التفجير
تحتل
والعالمية
الغاية
الايجابية
##زيت
والأب
الخطورة
الثدي
لفتح
هدفها
اسلحة
للحكم
والحوار
متميز
الإيرانى
وقانون
باي
الفيدر
واصلت
بروح
##مج
سمعة
##ائفة
لأبناء
ركاب
روز
الهات
##حادث
آلة
سفن
لتغطية
إحد
إعمار
للمؤ
نشأ
##وديو
##سناد
وتضيف
##مارسات
القديس
وينتظر
اقيمت
التراثية
##17
##اتيكان
لإد
بأول
إمارات
والأربع
##طجية
الانجاز
الخلفية
الكفاءات
المحام
أهدافها
والعب
العشاء
وعلا
##ونسكو
المكاف
الأمام
##لع
قدمتها
تشلسي
##عيب
##ضرم
نافذة
والمسي
وزارات
الافضل
الرقمية
بالام
الأولوية
هداف
نشرها
موزعة
##فلة
والبناء
##قيقتين
الوض
عناوين
اليوناني
نوري
بكأس
لحكومة
الوظيفية
البنا
المقاتلين
بجولة
اللتين
لمطالب
##يلها
وعلينا
انتصارات
المتصدر
##باشرة
وقوف
رابعا
للاجئين
لتغيير
جنب
القياسية
الغالي
وجوب
العقلية
للتعرف
عبور
الطرح
جزئيا
ظلم
العبدالله
المبكرة
1986
انس
كرامي
إكس
سنغافورة
الساحلي
مئوية
بشارع
##ليت
تنتشر
##هدفة
الجي
##فها
##ناوين
اللاذ
تأمل
##يي
التسهيلات
##ضحة
نيو
وطرح
والتعامل
الراج
الموحدة
الاحترام
الأدوات
بالوزارة
فعال
ضمنها
Arabic
عواد
المذكرة
المسجلة
##امرات
برب
والتقدم
الامانة
بسل
أولمرت
##شرية
مشيدا
يضرب
تغييرات
ميدانية
الطائفي
التمسك
محط
وألا
بإد
تهديدا
جدي
##ائجه
##قاده
تتحقق
القيادية
تكاد
لرجال
##قدا
الكس
بعب
المبعوث
الختام
وتتضمن
##جرامية
وظل
##كوت
منشآت
احيانا
قوائم
الثابتة
##غلبية
الاخضر
اغلب
جغ
البترولية
كاز
عنان
البسيطة
الثانوي
##جموعت
##حور
##زعا
الدكتوراه
تراجعا
الفرز
للمياه
قاسية
##am
مباحثات
للبترول
##فاذ
ولكل
تداولات
الإقبال
900
##رته
بالمت
التغييرات
##هري
ننسى
وأبو
1979
قوم
للمؤسسة
##لائهم
المربع
وجمع
##كيمة
تنشيط
مونت
هاتفيا
الطالبة
سيطرت
المنظم
كبد
##جيج
الترجمة
الأنا
قتلت
لواء
بيضاء
عقدا
الغالية
نشأت
تفاقم
##زور
المبذولة
ملاحظة
##AS
##صريين
اجواء
##غذية
والأطفال
والإمارات
الشكوى
بيار
وأث
والبحرين
الغاء
وقوة
ترسيخ
وصفت
الأوساط
المكلفة
مورين
بقصد
كاد
النهائى
أرواح
قدرتها
البير
##كرون
تبنى
الملحق
شركاء
##ائرى
أطل
المحترف
الغانم
بسم
قولها
كتائب
السواحل
وابن
النقاد
صحفى
رأيت
مذ
##فلح
المصد
وثقاف
##فليقة
لجمعية
حنا
عاي
أوامر
لمواصلة
##ستية
ووعد
##خدرة
المفهوم
وبسبب
ينعكس
وبحوز
يوفنتوس
ضوابط
موسيقى
المساحات
##روكيماويات
يقودها
أسعد
##عوم
##بهات
مديري
وتدريب
##هدار
بشراء
والتواصل
حان
حزبه
عبود
الموسيقي
بقرية
شئون
والدعوة
والاف
##جدد
يعتزم
الانجازات
ملاحظات
السباحة
##ارتهم
##36
منخفضة
للمنظمة
تدعى
مظلة
##باطؤ
لشركات
سيرة
التهاب
الشيخة
يصنع
بالشرقية
فرنسية
الضريبة
والستون
لعبت
##حرش
الحبوب
مستقرة
سنوي
غي
يتصل
ربه
##أسف
النفوس
ومعه
وحشد
الجغرافي
كلنا
##كييف
الهاش
ورف
الأصدقاء
والمساواة
ولفتت
كتبه
قلبي
الأنواع
باص
عائلات
المطلقة
##سامة
##وقية
مطعم
قياسي
الاطباء
بتك
توقيت
##روسوفت
بولندا
##وقاية
لغاية
رأت
مفتي
يجيب
ببساطة
والعلم
فنادق
خصصت
الأمس
دياب
مري
حفاظا
الجراح
الخيال
مارتن
الأجور
##حصائية
الفتوى
##زعم
انطوان
العبرية
سجون
بدع
يشتبه
خروجه
البنى
ضربات
##ملأ
والأربعة
##ليعة
براون
يضاف
وخرج
##دمرة
احتمالات
الاحتياطي
##28
تظاهرات
الفيز
##شعة
##يناقش
للتوصل
والسبب
يتواجد
وطلبت
نعت
تقي
بالكل
وبينما
الكوارث
وظيف
نزل
حيوية
سامح
وبهذه
وعب
منحة
وبرنامج
حرف
احتجاج
##هدر
الاسباب
##رافات
الانفاق
##صرين
##45
مانع
نظري
##وتوغ
واللبن
اور
وغالبا
##خذة
ونب
##اتيح
أهلها
عينه
والبعض
أدلى
وتشغيل
##سرقة
إدارية
##فاهم
التصريح
تاريخيا
تعرضه
##ذبة
تحققت
يستطيعون
اختبارات
وانها
ايقاف
ستس
##جول
مفخخة
##فارة
والجد
بقايا
بيته
المحدودة
بمفرد
هر
ابلغ
واوضحت
ولادة
##ثية
مشابهة
الفاش
##كاتف
##راي
##35
قانونا
جراحية
##مكانية
لتلبية
لحساب
##وقوع
للجمهور
يخالف
التهاني
سماء
المقبلين
##76
جنرال
تهديدات
جبران
##يسون
المدعي
الدوريات
##منية
واعترف
استخدامه
##ائمين
الاستعمار
ورعاية
النرويج
لمخ
متاب
الآليات
تركت
العميق
الاسبانية
العون
للجز
وصناعة
المتبعة
##ومها
الساخ
المسح
##واهم
##وقا
التنافسية
احياء
##راوى
لإيجاد
المختصين
الملكة
##احبة
المسلح
والطرق
جونز
تطورا
الأمنى
##يحة
نقلها
طبق
##يجان
الصيفي
بإرسال
الثقافات
لجماعة
انتهاك
مطلقا
الأتراك
ضرورية
الوقائع
بشرط
التكامل
والرو
ضريبة
##ائيل
للتجارة
والخارجية
والإدارة
استغل
الحواجز
للعلاقات
##شحين
صغار
لممارسة
اهالي
الرحيل
##لكم
ليد
بطرق
قمنا
الإيمان
الأفريقي
##شاور
الإجراء
بمخ
السري
محلل
الإضاف
ودع
##فيتش
والمعارضة
تناقش
انك
يحترم
خدماتها
ذهابا
مطروح
يطبق
المرحوم
للتق
وبدون
إلينا
حتما
للحرب
ركن
##فاصل
قبالة
قلعة
##عضو
مقيم
##ساك
النعيمي
الشاطئ
الكافية
رئيسيا
بوم
##ذكرى
طعن
لموقع
سوزان
نطالب
الخالد
##المة
ووفق
ستبدأ
ضحي
جنح
التقدمي
الترفيهية
للكويت
ارسل
شين
##ثافة
مكن
العائلية
##زما
مجهولة
الكمية
الحجاب
سلبي
الدقة
##حديات
الأقصر
مبارياته
عمران
ونش
اكتسب
زب
يسمع
تمييز
اعترض
جولات
للأندية
فرحة
النجار
رضوان
إيم
والتجارية
جهودا
نوا
انهاء
تجميع
وتمثل
##وريات
والقوات
اعد
والعاملين
##لاط
ستشهد
##لندا
لمهرجان
بزي
كوبا
##راضية
تستغرق
البحرينية
الحراك
الأخذ
المنص
للمحت
أفعال
شعرت
المدعو
النظم
حملته
متأخرة
واستعرض
الشرع
الأجن
العروبة
##زار
البنت
##روان
الفاعلة
##باص
متواصلة
دعوات
##روحات
وخدمة
استعدادات
فيقول
##قلها
بلجيكا
كتابات
عقول
جعله
تاي
مشواره
يتن
تركية
ستتم
الإصلاحات
واقعية
دل
##ولف
ويلي
تامر
عقدها
الاستشارية
وتوزع
الكندية
الاساس
يحول
ارتياح
للمحكمة
اللوائح
الاعداد
محامي
والجزائر
الشبكات
##يوش
المحسن
خطابه
المداف
الاربعة
الرباط
يرافقه
1973
أبيض
##قاوي
النضال
##ديات
##يبي
جانبا
مجريات
لطلب
وأنهم
##ندري
يسهل
للكرة
منهج
##طيم
وجامعة
الارتباط
بيتك
##قطات
المفروضة
##المات
واكدت
محظ
واحمد
وأجهزة
تصنع
مواطنا
الطرفان
مرشحين
نشرتها
أعمارهم
وبعيد
جرح
صفوفه
بوتفليقة
ايلي
والبالغ
ولله
والدعم
الفقه
محاسبة
روسي
يفوز
بالمو
طاقات
تلوث
##وقود
يلتزم
الروماني
بيك
البطاقات
بلدنا
تامة
أغلق
1975
صانع
والقرى
تحكيم
يستغل
كوادر
##سرطان
فبلغ
##قاوم
القاتل
سيقدم
حراسة
وقفت
كونغ
للتش
زعم
##يسا
وتعليم
المعيشة
العادل
والمشاريع
يكاد
هويته
القذافى
والتخطيط
فضيحة
##تس
والمغرب
النووى
اعوام
ايمان
##ابون
##واكه
##كتشف
القرني
وهيئة
أعمالهم
استخراج
ملاك
خليجية
تشرف
والحصول
تدرك
حقيبة
بصحة
البارد
بمنح
شيكا
##ادتنا
ثقته
الشقيقين
المنس
##ثمرة
الباردة
رضي
السائد
والعديد
فتحي
ويمثل
لضبط
الأفغانية
##ناط
نتوقع
يتح
مفتاح
تصويت
الساحلية
##ذرية
الموقعة
الكندي
##سمت
##تيه
##48
انفسهم
بطلا
وساهم
وإجراء
طالت
ناح
يتجه
وحسين
##صابين
##ددين
##جانب
أرسلت
البرد
دكتور
بإعداد
بسام
حضرت
##لاص
##واتير
يخسر
الشيعية
الأساتذة
امور
##اندي
موبايلي
الماجستير
الانخفاض
تمس
##وظفي
اللحظات
المتخصصين
دعو
التمديد
التما
##79
##ورز
الأسا
الكربون
ونظم
جراح
##لط
أري
##واري
للتعبير
تحقيقها
تنظمه
وخسر
ابنها
مستع
الاشهر
الخزينة
ببيع
رائحة
ولاعب
العاملون
الختامي
كامب
للسيطرة
شاحنة
ومقيم
تصر
##هاي
##لائل
هاما
##id
وحا
درع
ولجنة
تصيب
السوبر
ضمانات
أبعاد
تفض
المتواجد
بنوك
نشاطها
الشمر
مغلقة
احتياج
لأعضاء
الاردنية
بقسم
قافلة
معم
بلديات
اكتشفت
معوض
السيف
لسب
العداء
##ادو
مركبة
ازاء
تنف
##ادرت
المسلمة
التحفظ
##ذف
##يتال
##يزال
الأكراد
الرياضيين
للمساهمة
المستقل
خليجي
توليد
اميركية
التحدث
دولارات
جوزف
لافتات
مبروك
تتناسب
شابا
بأننا
##ينى
##خلف
##سامح
للآخر
خفيفة
##ضيوف
نتاج
البراك
##لاحق
والصرف
##ساند
ستوك
ميلاد
وأدى
للسنة
ليوم
اثبت
عدمه
##ودو
ومعظم
##سندر
الملح
صاحبها
والثلاثين
ماريا
الأشجار
ومعالجة
سافر
##جلسة
للأزمة
##يعوت
اطفال
مشاجرة
أعظم
البخ
وأهداف
الصفر
والعنف
والتنظيم
قائما
التظاهر
يعط
النفوذ
##جرس
الجع
##ناعي
والمدير
روسية
الاتجاهات
الفيس
نشره
##عايش
للفنون
##فجار
الظلام
أبنائه
للخارج
المولد
للانضمام
والحر
##وارب
للحديث
ودراسة
##تموند
واعتماد
التقاط
القنابل
وبكل
الجنسيات
قيادي
الإعلاميين
الموه
المخالفين
مسبوقة
##روفات
أراضيها
للتر
والحقيقة
الفلك
يتضح
مجانية
حقائق
ثنائية
ابدا
للتد
الحصة
##وطنة
موجودا
التمرد
بالقطاع
##انغ
انتخب
والأعمال
السرقة
بشارة
بصوت
أمناء
شخصين
والاص
##وانة
العاجل
الانتحار
ميثاق
والدة
قدمته
اختطاف
والسياسي
105
##فاهية
فعلت
أهله
##طونيو
##46
##يسور
الخصوصية
ملحوظا
ضيفا
خطرة
##هون
بدول
رياضي
دافع
##49
لمزيد
##شيء
##حميد
يغيب
جنديا
اللواتي
##قاليم
لترك
محاضرات
تعترف
ليم
تفكير
الصق
##وافد
##ابها
##يتش
الاستغناء
الاذاعة
دينارا
الحداثة
##راكات
بانها
واعادة
الرفي
كإ
ارتداء
الامتحان
المزمع
محاضر
أسود
الكوكي
وعود
المحتملة
أتى
الزمنية
النع
بوع
لحفظ
بإصدار
الودائع
يديعوت
لجمع
هدوء
##لزم
الأند
الممارسة
للأب
يرا
مقبولة
##لنا
شد
غارات
أمة
وجمال
بوب
العمالي
##ديما
بالاع
الفدر
مثيل
هندسة
طعام
وألمانيا
لتجنب
الحفر
عميق
والدولي
والمواطنين
##وثة
المتحدثة
جواب
ومشاريع
الغنية
الاطلاق
##ونيات
وحكم
##ذرت
المعادلة
مقط
##بور
وتسعى
مجهول
موظفا
التشكيلية
طري
سيقام
وتجهيز
##شفاء
ازدياد
حلها
الانشطة
قري
البريطانيين
##سبات
الشكاوى
والسياسة
عقبة
عبدالحميد
هاج
##وترات
الكاتبة
لطلاب
دى
ديك
##ماق
السيسي
مسفر
الستار
فهى
مخال
نشطاء
مسابقات
المرات
وفيها
العنصرية
##تتاح
##خلاء
بلدا
فيجب
ماليا
لمجرد
تسرب
الجليل
الوفيات
تحا
الاولمبي
الوفود
المتعاملين
تلتزم
الاجانب
فون
الأضحى
##وانية
تحضير
امني
انعدام
الجان
مقربة
قناعة
الإغ
##لمة
لمؤ
الاستهلاكية
صحيحا
والحياة
سكا
انطب
##تمة
حسان
##نغ
1981
عسكر
بشيء
##امنا
تجدر
المستشارة
إحراز
الانفتاح
الأوقات
مهن
##كالية
المدرسي
بالو
رفضها
##اردو
المتقدمين
##خلي
عايض
الصراعات
تقديمه
حن
ووسط
أمتار
الغر
أسل
كارت
تعلق
ويطالب
أمه
##جاع
استمع
وخل
##دمت
رأينا
النزاعات
للإسلام
المحاور
والوقوف
ولايته
##اميم
القصص
انتقاد
مشغ
محرك
##يطانية
شكاوى
البرلماني
كاست
الإيجابي
##لمس
مساحتها
الاخوان
إتمام
يرض
أجراها
نسخ
الآخرون
بالسوق
التركيبة
وأبلغ
لتعليم
قيود
فرنسي
مجهود
عاتق
الأضرار
##غنية
1984
التلاميذ
معز
مداخلة
##روفا
الفاتيكان
باول
حربا
الاصوات
والمفت
والوصول
الاغتيال
حجاج
عاليا
ويفت
وتسليم
ثقافي
ديار
الحديقة
الكتل
برد
العموم
عك
##يلين
حقهم
الجلوس
طنا
##رادة
مخصص
غالب
مذه
##الاة
المتبادلة
الرفض
فاد
ويص
##يشي
عاجل
مهند
الزكاة
التفاؤل
وتعود
ربح
##فاقي
##26
بلبنان
المهتمين
خريجي
##قابات
الوافدين
المحتجين
يسر
آية
بديلة
إيجابي
الأحرار
للفترة
مآ
خشية
ويعرف
السويسرية
زهير
قاتل
##يسية
ويشت
فاعلة
##مرا
وقاموا
##كسب
فأن
سوداء
ومواقف
واعضاء
توزع
تميم
##فيان
تنافس
0400
لمنصب
اقرب
يتكلم
ابنته
سنوية
معتبرة
450
##راش
نصل
عصرا
لسوريا
حقها
الاشغال
المقترحات
اسابيع
وبقي
الالتحاق
##ot
حضوره
متش
فريقي
التعليمات
ستبقى
حكومات
##آمر
عموم
عطل
وطالبة
الشعار
الفاض
تصفية
الحيوان
والسؤال
فياض
ترويج
الكتائب
##39
##دونيسيا
الشاحنات
للمستثمرين
المباحثات
اختتمت
بتحويل
الزملاء
المنط
بقاعة
وأوروبا
بوز
سيبقى
مماثل
##جيزة
الأط
انق
يقلل
الاستثماري
منشأة
اغلاق
الاطلسي
##رافقة
وأمين
الورق
الأفريقى
والخروج
##ياتي
تصريحاته
##ation
والفض
بئر
##فسي
القهوة
يسلم
وعودة
وخلق
الزبائن
والماء
لتشجيع
أنفلونزا
تحرص
مقل
قنابل
##كتبة
اعمار
وتونس
##هولم
##جليزي
تغيب
الفارس
بلده
مدربه
##سائر
بالمل
بحيرة
المتطرفة
الرائعة
الصلح
دوم
هتافات
النقض
الرقة
##باقي
##انيه
فماذا
الاندماج
وسأل
1200
هموم
الحاد
شاشات
##بيك
تلفزيونية
المشاهدين
##78
##وابق
قادم
بتعديل
تتع
بارزة
بنتائج
كمن
طوني
الجواب
لنها
1426
واختيار
سوهاج
التجزئة
إنش
سعى
الجغرافية
تقديمها
السندات
نفق
لإعداد
##تيكو
أراض
الإنكلي
نهائية
##يشان
للاطلاع
والسودان
##كاملة
مقاتلي
الانتهاكات
قصور
الحوثيين
الثلاثي
إدراك
اللاتي
الدليل
واستمرت
بأب
المعالم
البوابة
وغياب
##سابق
والبد
الأجل
وواصل
اعتداءات
##قطار
تستقبل
العصبية
تراخيص
##باريات
توجهات
##صالحة
المحال
تاريخي
خلية
##راتيجيات
لاعادة
##يفر
المؤمنين
إخطارا
بخير
المعتصمين
السلف
لسوق
الرجوع
ساف
واستغلال
الكلى
حماة
فاب
الأزواج
##سوبي
العريضة
معدات
##جالس
واليمن
الضيف
نغ
تهنئة
المستخدمين
أساتذة
الاتجار
الأعراض
برقية
متسائلا
بصح
وبس
وحما
الإفريقي
1987
##سلو
عمارة
الوزيرة
التسامح
البارز
قمع
ماديا
ملكة
يراه
المحتل
الممثلين
رائدة
خاطئة
بالاحت
دفن
لزم
المصلين
##قوبة
##ضحيات
وتشكل
##نر
الصلي
ومنظمة
العمارة
البلجيكي
طرحه
##وبيس
المرتقبة
اراضي
ومكافحة
##يدو
وترت
تنفيذا
الطارئة
عبدالمجيد
قرارها
وصور
لمل
سيبدأ
الرائع
##ig
سابك
جث
##ادور
فسوف
السبعة
تأسيسها
علاقته
ماكين
طفلة
شبعا
مفيدة
وسجلت
النواحي
تعترض
170
ودورها
يحذر
طبقة
استبعد
المسئولية
توم
إمكان
بالآ
بقطع
متهم
المرزوقي
للبلد
التبرعات
نائبه
ريب
حاولوا
##ولندا
مثالا
الجامع
يتعدى
الانتح
إير
للتواصل
نصرالله
اقول
بلغة
الابتعاد
الميداني
حراس
طالبات
والشؤون
مختلفا
شنت
للأسر
العظيمة
ادعاء
وكافة
قلبه
بقصر
ثلاثية
وطننا
الجنسين
دمر
للرأي
بريطانية
1970
##29
استعاد
تغيرت
زلزال
ميلي
تطبيقه
هاتفي
##راضا
الاعتقال
بمكان
الرياضيات
مدي
الافتتاحية
اري
##رحيب
بالأمر
##ماشى
ناص
الخوري
امتدت
كوكب
متهمين
يتوجب
المحظ
ولمدة
عيش
والوحدة
فيهما
المنسق
بأداء
##سيوي
##لوان
يتلقى
فقام
المعروض
التأخير
##بعه
##iv
المهدي
##ابيات
وادى
##نائيا
والازد
رات
والري
لقوى
أسم
##سبورغ
وكوريا
أورد
عنصرا
أعين
تجدد
تبرز
للأوراق
##قدما
إرهاب
حققته
السيول
للإدارة
اضطرابات
زحلة
باه
الكوكيز
للإصابة
بالمستشفى
المساندة
مسكن
مسلحون
نفقات
عرضية
أكن
مناقش
دقة
المؤرخ
##شكلات
نبات
اللام
العثماني
المستحيل
الكافي
والآثار
يخشى
وطنه
إرهابي
المتغيرات
##صاعد
والمملكة
ديمقرا
كفاية
بسحب
##ad
يجتمع
الصفوف
وناشد
كرو
أعاد
##غرات
الأفق
التغير
للاشت
استياء
وتسهيل
النازحين
تجسد
##زيل
تتوافر
حربية
ورصد
موعدا
وانخفض
الحرائق
وقائد
بميدان
##فيري
الطاقم
##سيت
##38
الأضواء
دورتموند
قات
الرؤساء
المباركة
الفروع
التجميل
الموج
القبل
الكميات
##فعول
1427
وعضوية
ظن
أوقف
##ثرين
وإطلاق
اعرب
انتهاكات
الرقابية
للاس
المصدرة
##اقبة
محرم
يدعون
الداعية
الهدايا
كق
العيسى
إستراتيجية
أكل
خسارته
الجزر
صام
التنفس
الإخبارية
الصادق
إدراج
الهروب
##كرار
##ئيل
سعيدة
##اشدة
##غازي
الوساطة
وقالوا
المنعقد
الكومبسه
الدهون
الكومبسهذا
الإسماعيلى
معك
تكتب
انتفاضة
اختارت
ورعا
شكرا
وحكومة
الارجنتيني
كوت
مسؤولو
##صان
##تمادات
تتعدى
الموز
##اهن
##جبت
انتباه
الكندري
بأمر
كرامة
تحية
بحماية
شديدا
داخليا
بطبيعة
المعمول
for
روي
دمياط
##يقظ
يتد
الروائي
تصادم
الحليب
##طلحات
تعدد
المستشارين
المتوفرة
يترتب
الأيمن
ديل
##زاولة
احدث
الغيط
حرمان
المدخل
ممتاز
الكاثوليكية
##ليان
لتلقي
##ساعدات
شهرة
##دائي
الحاف
وفاع
خطابا
الظواهر
حقول
موث
الدراجات
الخيل
هاتين
عارض
أبنائها
تتواصل
النقدي
يومها
تدريس
نزار
وحفظ
حققها
المعلومة
بالضرب
عطاء
أكدوا
الاجواء
بعبدا
تهيئة
يمكنهم
استق
1978
كابول
جود
والواقع
الفخ
وفع
البكال
القرعة
المقط
غار
امتحان
وطريقة
سهلا
##ستهم
##هورة
واتحاد
##طمئن
المنافسات
كجزء
##زيين
ومشاركة
مغل
والجمعيات
الاماراتي
لأم
بإغلاق
تتسبب
نهضة
186
تصد
عبارات
وصيانة
غانا
يدر
مسبوق
إيصال
القصور
ركز
يشعرون
الإرادة
العقاب
وحرية
لارت
##ترط
انجازات
سور
##ويك
سمحت
##طعن
العابدين
للمهرجان
فالد
الشاهد
بصراحة
باختيار
مستقبلية
التلم
المجمعة
والغرب
مهامه
الميادين
##فتر
ومسا
المطوع
وحق
النباتات
##خبط
##واجدة
##فردات
حلوان
مايكروسوفت
مقار
حية
##خطى
##لوا
لتوجيه
الغش
الرمضانية
واعتقد
##ائقي
الاعتراض
ومصالح
المستوردة
وأطلق
لموسم
الشهرية
طعم
السليمة
الأرجح
##بوك
للإس
أضعاف
القمع
والعربي
##اءت
يعانى
ببن
تفاع
العبيد
خبرات
إصرار
تغي
وتجاوز
تقليد
الأقسام
ريد
خيرا
العجوز
ناز
وظهر
هيئات
حروب
##اليون
الفوري
##يازات
صعد
الممكنة
والجامعات
تناسب
##ؤنا
للتغيير
مقررا
الرباعية
العبور
رغبات
The
الإعادة
جدران
اتهمت
المؤدية
مباراتين
بالحب
عظيمة
ستقدم
##راصنة
بالتزامن
بشمال
عقار
##سمين
##روفيسور
فعندما
أجانب
أنتم
##ضرر
أعت
مشروعة
بلدي
زهرة
متفا
##شاركين
أولوية
متأخر
مانويل
هيثم
معطيات
يرغبون
والرعاية
##كتيريا
والمتابعة
الأوروبيين
يجعلها
##طبع
واسم
تتأثر
صباحى
التهدئة
أربعين
التلاعب
خضع
كيس
وبأن
رصدت
##شئين
بالاس
ملعبه
الائتمان
ريك
والقي
1985
المشير
الكاميرا
صوب
##فاجأ
العلاجية
ومناقشة
تفكيك
المكسي
يصدق
تعق
وأظهرت
##غرى
ويحمل
فرانك
##بكي
الجنة
البعيدة
مسودة
##زلت
يضطر
مسلح
أننى
750
مستخدمي
##ميص
المشتركين
التغطية
فاعل
قادرين
الحشد
حولي
##ويلية
كلامه
وزع
اليونسكو
##ذبحة
كمد
زر
##غادرة
وفيه
الإيرادات
##كيت
التشريع
الليكود
##جوب
مقبرة
ستريت
حرا
عائدات
وليام
جنبا
نضع
استقر
منكم
##رسون
الثقيل
##بيحة
يتراجع
والمعرفة
المتابع
برصاص
الصاعد
القتالية
##جارات
لمباراة
مساكن
بمطار
التلفزيوني
الواسع
مكونة
الإفطار
تعارض
عاليه
بأم
الصنع
شنودة
الاستجواب
التتويج
محتملة
العاهل
وأهمية
المحافل
اللاذقية
نشعر
الإغاثة
واعرب
لوائح
اط
المخلص
غنى
مسئولى
العادات
الجناة
المحرك
1429
##جموعات
##خن
##هيب
التنا
الشاذ
الثورات
أوغلو
مكانها
يليه
تساؤلات
هدا
اساسي
أنشط
مرشد
##ايل
يجسد
لشعب
مدربا
الفهم
امتحانات
والحديث
##وارق
لفرض
بشأنها
الجدول
الحضارية
شهيد
وبدا
تنوي
التلف
الكرام
للمخرج
احتساب
وارتفعت
حزمة
يلاحظ
ضو
##اكسي
جيران
للفلسطينيين
يكلف
##ce
تتسم
الهائل
المولى
تقريرها
550
وانتشار
وكنا
والإصلاح
المقعد
حلت
اتجه
توثيق
بوسع
والتأكد
التجهيزات
انفجرت
الهراوي
##ثو
المعلوماتية
##جالات
سهولة
تنظيف
شوقي
الريفية
تمثلت
وشك
##ذاهب
بمديرية
مجزرة
الرص
لفريقه
وإذ
شبابنا
ويحاول
لتفعيل
نصار
##يمقراطية
الجنايات
أعداء
ومرت
اشكال
##خرجت
وعرف
مقام
سعيا
التجاوزات
الثقافى
بهاء
##شددة
##اين
أخري
النفقات
وتوسيع
للمجموعة
الولاء
الرفاعي
وسرعة
##نيت
##انتان
##جاجة
##عاطف
الناقد
##عله
الريح
تسيير
صلاحية
ومعالي
1428
الاولية
##راهيم
الانتصارات
وعين
للتج
المرجع
جعلها
الفلاحين
نعتبر
للتف
الموانئ
تحض
##زاق
بمحاولة
مواكبة
##ائقة
الصياد
1974
الضو
وربط
لشئون
تسقط
188
الحاضرين
للكشف
##وافل
هاي
ديموقراطية
##لر
##فلام
تتكرر
ميزة
##اعرة
وليبيا
السوقية
يمكنك
ستيفن
##عمير
الصفراء
##هائن
الإلكترونى
ونشاط
##سابقات
قرأت
##فيفا
وشملت
ليا
لاعبى
الانتاجية
القوائم
##قمار
بالتدخل
##امله
والعلاج
والشر
كرئيس
الحمام
والإدارية
الاحتجاج
سرد
بقضايا
معادلة
فوضى
التز
المجتمعون
##طهاد
شدة
لوا
الإرشاد
والتركيز
ارب
عميقة
##بوهة
والمستشار
سماحة
##اريح
الاحوال
بإحدى
المناعة
وأتمنى
المحاضرة
الرافض
للدوري
الانساني
##أهل
الثلث
بالأحساء
مقترحات
الريف
التأمينات
التعويضات
غطاء
##ارو
التمارين
النهائيات
سامى
فلقد
التوحيد
##اراتها
وكانوا
فلسطينيا
غزو
##ضييق
أنثى
المتبادل
العديدة
توسع
التبرع
غرامة
انتخابه
##عادن
تولت
##صاري
إلكترونية
##ندقية
والمدارس
ايدي
يردد
##وريتانيا
الصيغة
وبنسبة
##ساح
صم
المكتبات
##نيفة
توصيل
تفكر
مرورية
الإجمالية
مواصفات
فينا
##ويقية
القطارات
مصداقية
الواردات
الزمني
تشويه
صحفيا
يديه
العملي
حاصل
الأيدي
##فقد
والأجهزة
العريش
ميك
إقبالا
##سخ
الفردي
يور
##لتقي
رؤيته
حار
##ودعات
والقن
عريضة
عصابة
##بكات
##قع
يقترب
تكفي
##21
##ادلى
شعراء
الحداد
وأفضل
ونأمل
##سيير
يدين
والإبداع
##حك
##شيف
الميت
بالحصول
فرحان
دامت
تواجهها
##داءات
المصير
الأفارقة
##يرموك
يليق
فيلا
للنائب
تأثيرا
عانى
والناس
مناسبا
##برين
حظوظ
##ثلي
التغلب
##وجبه
ومؤسسة
الأطعمة
##ورصة
المقيم
مسجلة
وحصلت
سوبر
ووض
الكاري
الأزياء
بالهيئة
التجمعات
أصر
أصدره
وحلف
اللم
تبعا
##جماع
هبة
##شكال
الرحم
ببرنامج
دن
الهلالي
##23
سئل
##عتهم
المحللين
انسان
الركود
للدراسة
ادت
##يبت
##فيل
بمدرسة
هونغ
##وفاء
يعتبرون
ظبي
##حيا
راي
لشرطة
الخلق
الأساليب
##رزاق
الأنظار
الرعب
المرجوة
فردية
##باحثين
الشائعات
وثلاث
ينته
انسح
للمؤسسات
مزرعة
##طالما
بأد
شهري
إنذار
##جبيل
الشركاء
##ضطر
كافيا
قادما
للمقاومة
##رتا
المارة
جوا
##براطور
قيامه
لمحاولة
منتخ
العشوائية
أمم
الكحول
لمختلف
##كاثر
قمر
واللي
فنون
الرومانية
بالمعروف
لخادم
برفض
القمامة
تحسبا
##حاسبة
للنقل
طائفية
##يصا
الشهود
وتدخل
##عضوية
الاعتقاد
##دوا
اعرف
الحدائق
بامتياز
يمين
تحيط
الدعوات
اسبوعين
الكا
كولومبيا
بريطاني
##هدم
الغابات
##فسارات
ضروري
الخاطئة
##عيمة
أنس
يعي
وترى
##ركم
المختص
##وجها
وطمو
التطبيقية
لجأ
تبث
للدموع
بأكمله
##كيين
ثروة
ومناطق
لتأسيس
التشغيلية
المتعاقد
إظهار
##24
يخطط
الهادئ
محملة
خصوصية
##فقا
المحمولة
غاض
الشقة
يرعى
نضال
##وصية
الندوات
وعمليات
يفسر
الدواجن
##رحب
يصح
قضا
الامراض
المطارات
تعرضوا
دروس
فلك
فيلما
والقيام
##كتشاف
نقبل
##جزات
خلفه
الحدودي
يدير
##طلين
حى
احكام
##كيدا
الإنشاء
الروضة
مصابا
المفاجأة
ويوسف
والسلطة
بالفريق
##جميد
لاتفاق
غلق
احتلت
مجهولين
##BC
دش
ستع
وشددت
قمت
البلوي
المغلقة
حرصت
وشباب
المخططات
للأعمال
##وخة
بترك
##رجي
مورينيو
تعيينه
راق
بدعوى
تعل
الشهور
##وانا
ستد
نملك
التشكيلي
التسوق
ونائبه
##ئتين
بالذ
انصار
المنصوص
قرطاج
يسعون
أتباع
##ريال
ترجع
الهداف
##ur
الايجابي
حقوقه
بجدية
##افا
الخيام
بفرض
بمكة
ابواب
##ئته
الإمبراطورية
فنز
للصناعات
مصدرا
تحرر
للرد
تنظمها
الإعلانات
جولته
اليهم
تشغل
هنية
##رقص
الصباحية
استعداده
الفرحة
بتوقيع
وضوح
الفم
بيش
السطح
تعمد
وبش
لتحويل
المعوقات
المتضررين
##حصر
اتفاقات
وحب
للجهات
الخصم
الاستيلاء
جدلا
اعتقاد
زائر
لضم
المنتخبين
مبعوث
يتحدثون
التصنيع
ملابسات
الحليم
زراعية
رابع
وذات
القبر
لشخص
المستحقة
والهيئة
والتشري
الغياب
يجعله
مفيد
وتصل
يتدخل
##صق
الخصخصة
##هلت
بالقانون
تطويرها
##نهام
والأق
تنتقل
وحجم
متنا
فيم
##اذبية
بزع
##73
##سنت
علاقاتها
بولس
ملاحقة
العلوي
اصابات
##فران
شمعون
الهولندية
المستندات
الامل
للمعارضة
يستبعد
الصلاحيات
بلقاء
الأوليم
##غبات
ظاهر
دليلا
التربة
اسلوب
بموضوع
ميشيل
##ينز
الليبى
المستوطنين
##رائع
المعلنة
115
وتقنية
وتغيير
مثير
##حدر
وللت
عظم
##زها
الأبعاد
لاستضافة
ونشرت
وحم
الصوتية
الأنفاق
الشقق
سلبيا
الظاهر
التقت
وصار
إبلاغ
وانتهى
##لقون
الوادي
دنيا
عمومية
والعدل
العقيدة
الحمود
##جازا
دخوله
بالبن
وتدمير
##سيوم
عف
الآتية
##74
واستقلال
عسيري
أمامها
اسلام
##يرز
##ؤولين
المدعى
ورأت
ومهما
وإيجاد
فدان
عاصم
منفر
##طلعت
اتفاقا
لكشف
لشهر
إقليمية
نتائجه
الراعي
تكفل
ويشمل
##كومات
وجدد
تقديرات
طائفة
دلالة
المؤمن
والجهاز
للاد
هيلاري
##ظا
ذهن
##فدة
يبق
in
مسائل
بإعلان
الطراز
رسمى
بأصوات
الشغل
##نتج
السالمية
##اهما
حزن
المتحركة
تفضل
تلف
أقرت
فيتنام
بأقل
للعبة
يرتكب
المسلسلات
تشا
##ثوذك
أديب
تدابير
##برازيل
أسبانيا
العرقي
##جهل
تصريف
يحافظ
رعد
##ضيه
للمشاريع
العاصفة
والاخ
والمهندس
##سلط
ينتظرون
يستدعي
اختياره
لحق
##هتمين
أعربت
وصلوا
ردة
الإتحاد
اللهم
تدعيم
والأمنية
افتتحت
يحد
حرام
##جلت
أمنى
هواتف
قبلان
##زج
الاصط
الطابق
علنا
والفعاليات
بالأمن
عقيل
كرسي
فاعلية
##لايين
لطرح
دبليو
يدعي
وقص
التشخيص
بالأمس
الانفصال
حفلات
صارمة
##خلل
فضيلة
فخامة
حط
الراجحي
الانتخابى
##هاك
نشهد
ضعيف
تجربته
##وعه
تحتفل
العدوى
يشكلون
مليوني
لكني
النية
الممتدة
الوافدة
فمثلا
العوضي
السيرة
##ونيسيا
1983
الإذ
موظفين
##طدم
KAS
ألك
##طلبه
##بيها
وشقيق
##سكا
ويؤ
المزايا
رئاسية
بيعها
الاسئلة
الحمر
وجيزة
##مداد
إبان
##تمية
##ئم
##برغ
روبن
##يفيل
عزت
##ائما
شبيه
كوفي
سيعود
الأكاديمي
وعائل
الأخلاق
بالضبط
بدليل
##ثيوبيا
##فضلية
والعشرون
لحقت
غريبا
اني
مسبقة
هائل
المنكر
الانظمة
والمستقبل
الهاتفية
حدودها
يترأس
تعز
ينقص
##ملات
الجراحة
##ندسة
الصيادين
مقبل
إنجاح
فصائل
وبلد
مجاهد
موسيقية
واجهت
معلنا
الحرف
الفيص
المساس
واتفق
بدبي
الوجبات
بضع
ستين
##ابز
نظره
جورجيا
سنين
الأسرية
##رط
المنامة
قبائل
لمساعد
##جزين
واقتصادية
##زقة
صوته
الهز
رقما
عندي
سات
الأبد
عشاء
##قادر
الكور
مضادة
معاني
الادارات
حمدي
الشفاء
غسل
يدافع
وضرب
موافق
##اهير
هكت
الماروني
والثقافي
عشاق
دارت
التراخيص
الوسيلة
##جرم
##لتهم
فرنجية
خصيصا
غرين
يشجع
جلوي
الشعارات
للشئون
والمسؤولين
تمد
##جموعتين
الانهيار
باري
مكر
1976
شبرا
تمن
بمبادرة
##حيى
الفجوة
المنع
يبعد
حساسية
يلقى
جثمان
بمرور
الراتب
وبينت
السمنة
هرب
اسامة
كرام
##فيا
الإفريقية
الشتوية
اليدوية
عروس
للفر
البوسنة
الأشكال
مكثف
##يثة
مداف
والتنفيذ
بأسماء
والمساهمة
العاب
والمعدات
##عوب
يعالج
شكري
البارزة
خصائص
سلطنة
واللجنة
توب
أوف
يجر
##ورته
##قرآن
والحكم
##ستمر
والتزام
ازالة
الرحمة
مجرى
وأفراد
نعيم
الكروية
إداري
مظاهرة
##قاح
الهضم
##طرنج
كى
إبداع
استفاد
والعطاء
تشديد
##ويب
آيات
الجاد
الصقر
مزايا
مليئة
ينتقد
غرق
##طلوب
##يغ
الضاحية
إسعاف
متاحة
بالشكر
تاجر
للبرنامج
للكل
ويقع
أدوية
##اتهام
والمرأة
طالبوا
##وقراطي
وتعاون
للنهوض
شارل
والنشر
العالقة
الرومان
الاخوة
الين
الموجودين
التمهيد
تحب
الحسم
بؤ
بموقع
يضر
المنصور
الموض
اليوسف
لتقييم
##هش
كثب
معتقل
##un
مطم
##عاث
روتانا
ترسل
##علانية
والترب
أثرت
وعلمت
##وثائق
ووصلت
بوسط
أتت
أسرار
كاش
##ثقيف
##جاني
احتفالية
الجولات
##تيارات
ونص
##لازمة
الاهالي
يتصدر
بالاشتراك
منهن
يميل
يانغ
متفرج
زملاء
التنقل
سحر
##انتانامو
##ابلس
السع
القنصلية
##لمون
نشاطا
اندية
الكومبس
الشيطان
هجرة
ويظهر
وتواصل
حصص
##وحت
بحقه
تطبيقات
يبيع
والطب
لتعديل
بدمشق
النشطاء
رامي
داخلها
بلاك
انعقد
لتشمل
كهربائية
القراءات
بالنظام
الصمود
البحثية
تخطط
تنتمي
تعبيره
والتراث
رفضوا
للصحافة
##ارسين
##كنيسة
##ساتين
العادلة
##ذاكرة
اختفاء
الخلي
##هلى
##ابى
فضائية
تعبيرا
وقدرات
وضعف
لوم
قواتها
تطال
##هنات
تمرير
الفعالة
##كراه
الانضباط
للدورة
الشريك
##التين
توضع
لمستقبل
التعازي
##موذج
سلفا
واطلع
##قابلة
مضت
قطعت
بالتزام
مولد
محترف
تضاع
وقضايا
معقدة
ويشكل
ستعقد
المضب
والحمد
الأصليين
مطلقة
##اردن
يث
##سابات
عنيزة
حظي
قديما
الخالق
ستستمر
خانة
مركب
##ter
يدا
##حيم
المقاولون
وتبقى
ورحب
طائلة
محذرا
مقرها
ويمت
ويجري
كثر
والمرافق
بمجموعة
انكلترا
جوال
السرد
القى
أجيال
العت
واجبات
بالفيديو
أغلقت
الفيصلي
##يمياء
المتت
أصعب
##وسين
وجمعية
##وتهم
وقود
قوته
ونسب
نشاطه
الجملة
##هادية
يرسل
ويلعب
يتأثر
مثله
الشيب
إدانة
إياه
##بيتهم
##ستيك
برلمانية
المالك
مفاجئة
##سبين
المرشحة
يعيشها
##ئتي
دبى
أنهت
طرفا
بموجبه
وتسبب
المحدود
يتعلم
ووحدة
ورحمة
المعروضة
اقترب
##فورد
##تيان
المنطلق
فلسفة
ومراقبة
أعيد
ينوي
اعتزال
##قيته
بالمناسبة
يحمي
الاسر
بالتف
ادخال
شكلا
طوارئ
سباقات
التفجيرات
سكرتير
والمعاهد
التحقق
تطورت
##روجين
تاج
وتقع
بالقرار
##زيهة
وتلقى
نسبتها
ستوكهولم
مفادها
##ختتم
نشرة
##يليا
لذوي
التراب
##واليس
براءة
##كوى
وسلام
دانيال
العز
بالتم
قذائف
مصم
أسوة
بالحكم
البشرة
الأيتام
وسين
بمكتب
سيرغي
##يليشيا
التكوين
الأيسر
##وسعة
المراجعين
ضدها
الضرورة
لقمة
تطر
اود
##جهاض
والجنوب
العملاق
عايش
الفرج
##لاحة
أتل
الوقوع
التكنولوجية
رسالته
سخ
فورد
الحيوانية
الميليشيات
أزمات
المشرق
تقارب
القدير
##لافي
رده
والتربية
رابعة
الخزانة
##ؤساء
##آة
ولديه
الزهور
الجثث
للضغط
سيعمل
الاصول
ملاحظ
استطلاعات
##ماش
##باين
اللذان
الواقعية
شهدته
بالحد
وعلق
لمشاريع
احتفالا
والازدهار
##سبانى
##رحت
جاهد
##موقة
تمكنوا
##يوط
إقامته
والتطور
والسعي
يحتفل
البص
##op
ويحتاج
النصرة
الكردي
تنوع
يبحثون
بسيارة
##وصى
لقيام
وبقية
تلبي
لقضاء
لصف
##انتا
القطر
متوقعة
القنا
##قله
وعشرون
الطاقات
فنزويلا
تقويم
انتحاري
##قفة
الجوع
سبقت
صدمة
خوان
وقلة
وسيد
ويجعل
راعي
الحكيمة
ومساعدة
منعت
الأكثرية
والدليل
تلو
نشاهد
تشجع
للمحترفين
##موي
يتذكر
اقر
والتعبير
ومواجهة
الطموح
لقناة
الشعري
الملاك
تجاوزات
بالتحقيق
##قض
منص
تخزين
ليبرمان
صغيرا
بموقف
كيلومترات
تقليدية
العط
قوام
##جلى
المناقشات
أنشأ
حسابه
استاذ
الاكتفاء
الصعوبة
##طوس
##جتهد
##em
والديمقراطية
##جبار
برز
حكمت
والأمان
عبير
##وبل
مظل
انقاذ
الترتيبات
السادة
وتقييم
اتفقت
التطوعي
الأشعة
والفق
للشيخ
كرب
##ركاته
ستعمل
لولاية
الحارة
##ظيما
بقيام
المتكاملة
المهاجمين
أمنيا
المتنا
##لبى
التدريبي
وتعديل
##ضبة
بالانتخابات
بالولايات
الهدنة
بالوكالة
وإع
##لاحم
التركى
لتوزيع
مواطنه
##يركا
مهمتها
يهودية
##أجر
ممتازة
##ورطين
الاعتذار
لته
للالت
##افيز
الاستثنائية
##رفا
الداخ
ثنائي
وعادة
##كيان
##قيها
صديقه
امكان
##وفان
حواجز
الافراج
المكاسب
التزوير
بالاج
تخوف
مخدرات
الكونجرس
وصلاح
تصرفات
الهائلة
اختتم
تأشيرة
بركة
الحقيق
للكثير
المدي
الجانبان
لخدمات
التأش
##بعها
مصادرة
بتمويل
ومك
والقوة
حجة
خيرية
تطهير
##كولات
وأخط
##وبان
وسوء
##ag
الدقهلية
##ياض
##لبس
يرافق
108
متقدما
##جاذ
بالرصاص
##لزام
##وانى
الخار
عبدالسلام
يرفضون
للاتفاق
للاخت
أخرج
مرضية
لمرحلة
للبحوث
أطلقها
الأمهات
اختراع
محتمل
تستند
موعدها
##رتهم
الفائزة
وخمس
تريليون
بوج
للطلبة
الاشتراكية
الكفيلة
اليرموك
والإرشاد
والأع
أمان
مشاركا
ومختلف
السوفياتي
##قيض
الإمكانات
هادئة
الوسطي
لسبب
يبرز
الممتازة
##شرف
علميا
قضائي
التمور
المعتقل
والكثير
المثير
106
محب
الطا
##قيع
التسعة
##مجة
المراجعة
حرج
##بابة
وإلغاء
غنيم
##ولته
تنب
الرقص
يخط
جنيهات
الداعمة
وصلنا
أرباحا
اصوات
لاجراء
واعتبار
يفصل
يعين
##لاوي
ثل
القطب
لادارة
بجم
اليأس
##طوبة
شاك
الشوي
والنجاح
يستند
تقوية
لظروف
نقطتين
الضيقة
135
احتواء
أنظار
ولاحظ
##قلاع
##بيون
الكاثوليك
ومتطلبات
عينة
بآخر
وجز
حظيت
##نفذ
##جمل
ذاتية
وموضوع
عقارية
لاري
المتوافرة
السلسلة
العج
سويد
البدرى
##هز
##زح
بالبطولة
##حادية
##لافا
وتحليل
ونادي
الانطلاق
الجندى
اخراج
بنفسها
سيشارك
نظمتها
##ريمه
ونتائج
مساجد
هروب
##رتون
##ليقات
##نترنت
عواقب
ولكنني
بانخفاض
##ونسون
ماسة
مشاورات
الغارات
وحققت
للاحتفال
##95
متوقع
واستخدم
بالموافقة
توي
##تمرين
واجهة
الشق
اتضح
مرتبة
تسأل
عاصفة
العنق
حاضر
العزل
تفجيرات
جانفي
1972
نزاع
##علت
وقب
موقعة
وتعيين
ينصح
حصلوا
بالبر
السمك
وإبراهيم
التساؤل
وممارسة
ارهابية
انقسام
الانكليزية
والته
##وقي
رمزي
الرمال
دفاعا
بعضنا
النبوي
##43
تحفيز
المترتبة
##حيل
أعقب
إلزام
ميزان
ينف
لوسائل
التمريض
##تعون
تتدخل
2019
انتقالية
##يض
يتوافق
التقديم
تنموية
المؤسس
المنصة
الأبرياء
##ينيك
بقضية
##بيانات
تزام
ويصل
للطفل
لمسافة
نظافة
##صنع
لتسجيل
بالكثير
صاف
الطبى
سيحصل
والأمير
ذاكر
فردي
نراه
بهدوء
الفصول
عريق
العلمانية
بست
تشيلسي
توصية
فوري
تعالج
وباكستان
1960
اهتمامه
وتبدأ
الفاعل
أخبر
كوسوفو
العريض
المستهدفة
الهيك
ونج
##سيدس
السلبيات
المركزة
الشاي
باليوم
والعسكرية
وادارة
إجمالية
نسائية
تدين
الجراحية
مالى
الأمية
رئيسها
خرق
والتعرف
عينات
التحويل
وتشهد
جماعي
لمكتب
أبنائهم
##اجين
مؤامرة
النسيج
مرشحة
##طعام
التجسس
بصعوبة
التخرج
##ادونا
انتظر
صاحبه
ويبدأ
نوم
والخوف
هولاند
نوه
أعضائها
والفساد
للتصويت
مرتفعا
إنتاجها
ووافق
وبالطبع
الانع
الطائي
للمسلمين
المضافة
الحائط
بالطريقة
##اتهن
منفصلة
حاضرة
إعلاميا
جدل
رافضا
بطلة
##راة
##حتين
الموالية
التحق
وسير
عشوائية
##وروث
##تماده
بمزيد
مواهب
المنصوري
تذاكر
للمناطق
##كيب
خارجها
لمسابقة
التطبيقات
ويوضح
##اغون
إبراز
##جرام
السامي
أوغ
ساند
العارضة
لنت
يكتشف
عبدالح
##فوقين
وتقام
قضي
مظهر
للجن
ويوم
للمرضى
الأنف
والمغ
السكك
الخاض
المريخ
المعارف
للمل
متنها
بفندق
أولها
##بعاده
##ردقة
يحتاجون
##خصائي
##ثرات
تحترم
##دعاء
مسؤوليتها
التبغ
احص
أضافت
برامجها
مكافآت
##ميس
بالحزب
أسعارها
RT
وطار
وتض
الجماهيري
الغن
##هين
والطلب
المقارنة
الفلوجة
1962
لاجئ
ندعو
الهيمنة
حاجات
المتزايدة
قلنا
وزي
صدى
##فضلة
##سار
كمر
يحتمل
حجمها
ودولة
وخطط
بشؤون
أظن
##صارى
##ردام
القليوبية
جلسته
البروتين
لفظ
نظاما
المنشأة
إياها
##ابك
والتعليمية
فالنسيا
التساؤلات
خارجي
الاثر
1559
إيجابيا
للإنسان
سنا
تحديا
##ستن
وتظهر
واصيب
سيستمر
لهجوم
باولو
استحداث
تستطع
الأسبوعية
والكرامة
##صوله
صال
للذ
تفادي
الفيت
تكتل
الرضا
وسيل
وركز
ومز
صورته
بنسب
واستمع
لتخفيف
المثيرة
السكة
وتوقف
حليف
الشهراني
الترجيح
الشعلة
العنصري
بيلي
مجالا
بأكملها
أخت
##قتال
أجنبي
الألمانى
والاض
الاتفاقات
##شيحات
عت
للتخلص
العثمان
المتمثل
تعاطي
الأفعال
الاسط
##وسيه
الاستعم
التناقض
النحاس
##حال
المفتي
خسرت
##موت
##سلي
المهلة
كثيرين
لأمن
إحباط
توتر
##روانية
تطبي
اتهامه
للسيدات
##im
##عادته
وهؤلاء
##ائرية
واعد
رمزا
##راكم
أحمر
الحقيقى
والمدينة
##عش
الأوان
كاظم
شيكاغو
##تيالات
##os
تمريرة
بحوزته
وأمريكا
##كفورت
الإنجليزى
أجرت
تحضر
لمؤتمر
مميزا
توجهت
##طالى
1977
قبض
تبت
نجاحه
المنشود
دراسية
##هجة
والفلسطينيين
الضائع
بزعامة
يروي
##27
لثلاثة
ايجابي
ارضه
الكيماوية
بحوث
شاس
حمام
الغنائية
##وريدا
فردا
##فيون
والتقاليد
لأغراض
##قاقير
البديلة
توسعة
دوام
##وتية
##ثقفين
اتل
وجار
التقسيم
والقدرة
متفاوتة
نوال
الموجه
الكابتن
برأي
كهذه
الروابط
أفق
عج
عزيزي
روج
اماكن
عملنا
لإنجاز
مركزية
يتمنى
بالمرض
يطلع
غارة
طلبه
والطلاب
مأساة
نالت
الوراثية
رياح
التوجهات
للمعلومات
حضورا
وحمد
##كوني
أعدت
##غنى
بالأن
الضوابط
يكمل
##وندا
خالص
##غواي
انقل
فاي
همام
وإعلان
مصرعه
المعلن
الأساسى
نمر
والسنة
الألبوم
أسب
##روحيات
وزار
##جابه
وإنتاج
فرصا
##يميائي
البحار
القانونى
##ينس
بوصفه
يخلق
طارئة
##وصيل
استرليني
المارونية
وافاد
تحطم
سعة
ديني
وقسم
##رقل
الملاحة
الاسترالي
اضطراب
البسيط
ابتدائية
سوي
الزراعى
المطلب
نفي
وانتقل
##ؤوا
بدائرة
الاقتراب
عفيف
التداولات
الاحياء
ويضع
المقاولين
جنين
أراضى
التوي
تحذير
برأ
للبنين
سهيل
##اندو
موجه
النادرة
طبيعيا
ودر
##مائي
والأهم
لاول
##خبار
##هاينة
##85
وبالأ
الميدالية
##بدة
تخلف
كييف
صديقة
ومواد
للتخ
نان
المنفذة
للسياسة
الخدمية
والمعادن
الطاهر
لاقامة
##يوود
لمستشفى
متعدد
فائقة
الاستش
بدأوا
يصلح
ضدهم
إبعاد
##ربيجان
وبعضها
احتفل
وتحديث
المناخية
وتحرير
##علمات
المحب
ترم
لإيران
ممكنا
الحساسية
النقابي
المكونة
نواجه
نحاول
التشاور
الاقصى
المطرب
تقاطع
وأصدر
مخططات
والعا
والأنشطة
المقاييس
##كرت
خيال
##سرائيليين
المعادن
##مولا
نجمة
تعويضات
رائعا
كليب
##ثوذ
المؤامرة
٢٠١٦
ودخول
##ونزية
جيف
تساء
التحضيرات
الانجليزي
حفلا
##بيلية
عدل
والمفتش
إقالة
سويا
##ويلي
استم
المخلفات
واللواء
أصدرته
أيوب
ملموسة
للكهرباء
تستفيد
للنيابة
لأفضل
بالتعليم
بحدود
الثمانينات
المستهدف
الواضحة
المتطرفين
##65
##أم
وقيام
أمامنا
1971
الانس
##غرقت
الدرجات
أشعة
أصابع
الفرار
##حاطة
المملوكة
التذاكر
ثرو
ينس
كائن
الانتقام
احرز
بأبو
فتنة
انتماء
تكساس
الكراهية
الوراء
يمس
شخصي
تحريات
البسط
التنظيمات
##um
##تال
تفر
وتحول
أنط
إعجاب
ثقيلة
##دمج
حكمه
منسوب
والحريات
يستعمل
##خف
مقولة
الغموض
بأمراض
وتطويرها
اسئلة
وسياسية
الحف
وزعت
دورى
مذكرات
تنس
##وريين
تحمي
وجدوا
الرأسمالية
ونتمنى
##ضج
الخلية
للكاتب
الملائمة
اجتياز
##سخة
والمركز
العناوين
الافكار
بمتوسط
ومنظمات
للرقابة
##يمر
بسلام
ميادين
الإحساس
##عيه
والكتاب
##رضة
العبارات
185
##نوع
العرق
وطنيا
جوازات
اشراف
##ياتية
الشكوك
##ائك
رخص
##بتة
أمسية
يؤيد
الآمال
يوقف
عروضا
غالي
الحلقات
##وسكار
##ريدي
المنوفية
والبحوث
الأوائل
مدنيا
##باشر
عيادة
الكرات
كتبها
حققتها
الوصاية
تارة
وإما
الأولويات
علمنا
وآليات
واتخذ
وستت
لسد
التقديرات
الأغاني
يتعارض
وكلاء
بدأنا
للصحة
##ساوى
##راعنة
والمخت
الزل
ممر
وطأة
النائبة
سبعين
ندرك
النسبية
وصد
##حرى
أبوابها
##أثر
تتفق
معنية
لوف
الثلاثية
السام
المخضرم
الأرواح
توزيعها
للوضع
لتفادي
اعتبره
والفريق
المسجلين
النماذج
لاين
ساعدت
والقضايا
والتأكيد
##زيغ
##بالغ
والقيم
وعلاج
مستمرا
طفيفة
البروفيسور
والصحية
وبالإ
والارتقاء
للطب
##غوب
##ندت
كمبيوتر
وكلما
بالخبر
هنأ
رأسمال
تجمعات
##خرجه
العضلات
احراز
أزم
##قطعة
الخريف
##ستيكية
عايد
لور
ولاة
ونحو
يشاركون
and
ورود
المحتوى
إقامتها
التوك
الواجهة
والسا
##زوجة
السوفيتي
كلهم
المواسم
الغريبة
الدرس
وازد
تصريحه
ففى
وبث
استراتيجي
أهد
كالتالي
##طيب
للغاز
تاب
وانخفاض
مؤشرا
الهوائية
المراجع
وخلص
والهدف
المزمنة
اخبار
ضربت
وهمية
يناسب
##وليس
مركبات
إيهاب
تدير
الإمكانيات
ضياع
الحضر
والإجراءات
وأين
دفعه
المشج
ركزت
المجرمين
افادت
للغة
لتبادل
جوني
إدلب
وتميز
لدورة
المقالة
مهنية
العلامات
لني
زوجي
##اشية
وانضم
حمراء
##غادر
##سيس
وطالبوا
نجاحها
سدد
الجانبية
والمال
سامسون
الأت
الاقليم
تمرد
الزعماء
##قادات
مفق
هال
وعملية
بملعب
لبلد
##ذبح
##قاتها
1945
ضياء
الصغرى
أخيه
راية
مؤيد
بأربعة
المركب
##انج
حقبة
المعبر
وقاد
بكثافة
خامن
ملح
الإجازة
الكيل
##جزأ
اللاحقة
تميزت
السكاني
مفصل
التوالى
خصم
لاطلاق
##وكو
الحجة
لمحاربة
المشاورات
المدا
فيفا
نابلس
المستثمرون
وأمر
##اهري
يتعرضون
نذكر
بالاتفاق
الأبرز
وتوفر
النزول
معاريف
الائتمانية
أوقفت
جهوده
المفاوض
1968
الريال
نوايا
وخص
مساعي
وحيدا
حقوقها
الموقوفين
وكاد
فيد
ضحيتها
الخطرة
داعية
مرماه
صادرة
##جيال
نسأل
طارئ
##ربما
تنمو
##صارف
للمنافسة
##وطني
أذكر
اشتراك
الكادر
المهجرين
صربيا
الدخان
الشريحة
تراه
سؤالا
لديك
والثالثة
أمريكى
بموافقة
التجارى
وود
نجاحات
المتضررة
##سمية
أجبر
كرات
واستن
نفقة
وصولها
توتنهام
##يمكن
متق
المديرة
لتمكين
##درائية
قدوم
ولكي
##NN
##ula
##عونا
تهدئة
الهجومية
ناخب
نكن
##نيب
ربحية
لازم
المستورد
1956
##حتي
الزوجين
بادر
اعتاد
##ليفزيونية
##تتح
تناقض
عرقلة
الجاهزة
##ظير
وذوي
للتدخل
##ir
بداخلها
وكأس
##واصلات
وشخصيات
منزلها
والمساعدة
ليغلق
بيئية
ومصطفى
الأمد
##جلان
والسيطرة
##زعاج
ورك
والمعت
الاحتجاجية
حضارة
##صفح
##زاهة
وتمكنت
الاما
فكرية
اختتام
الاسماء
ويصبح
هآرتس
الميكاني
وتسجيل
##بعثة
ضاحية
المعوقين
##ورتها
العميقة
##زعج
##ينج
البطن
##وياتها
بالحجارة
قياسا
شرع
أمرت
راديو
غيب
اولمرت
ومطالب
وتطلعات
فرحات
ترحيل
الأحلام
أقارب
ساخنة
المقربين
بوسطن
أشجار
فيك
يعلق
أسطول
الارقام
فوجئت
آلي
##الوا
قياسيا
العصبي
مفاجئ
الألف
فعالياته
النوا
ارتكبت
والبنك
بالأسلحة
بسرقة
الخطير
فقرة
اشارت
العمرة
اقتراحات
تحمله
خاتمي
خشبة
الخفيفة
تفصل
تايلاند
##روها
##عبئة
بالدخول
اقدم
الشبيبة
والمعا
جاهزا
الشاطر
استنف
وضد
بأمن
##غلين
عندهم
##ارسن
نفسيا
مشاع
مرشحى
##41
يتكرر
مناحي
للوكالة
الريان
حلمى
والبل
فأكثر
الأعداد
ماضي
مسارات
الزائدة
المتواصلة
دواء
إمكانيات
توريد
التحو
وعما
تقرأ
##دبة
داوود
عشق
متابع
مواطنيها
التدقيق
##رواتيا
##ارتنا
الزامل
عينيه
الأسري
لتسليم
موجها
الانجليزية
والدين
العريقة
يواجهها
أدري
المحس
التوطين
بالتس
العبادة
حاملة
##47
التسلل
التهنئة
والإنسانية
استفزاز
الجبلية
##طاقات
العمران
بقلم
والديموقراطية
الحادة
##جتها
الإند
تتد
للصندوق
الغني
غنية
واكثر
المتطوعين
##خرط
لكان
مرفأ
العمق
ومشاكل
تؤيد
الفوتوغ
انهما
عزز
##طفي
وتمو
الصالة
الأصفر
التخصصي
##ائيين
##فاس
لحملة
الجذ
والمقاومة
العبث
تربوية
الغازية
لإعلان
البرتغ
كأنه
لوي
بمساحة
تعيشها
الروايات
مترو
للشاعر
أضر
وعناصر
وحماس
وطنى
القبلية
إشارات
220
لكونه
يوح
دراستها
جمعان
المعنوية
مشيرين
المجهول
مقطع
المسموح
الموساد
والول
الصكوك
والهلال
بسط
##ردون
تخلو
الجوازات
ويأمل
بعم
وجهاز
الرى
التحركات
فمع
الحساسة
جونسون
##يلندا
تطل
فتيات
وموقع
لبنك
قبله
التويجري
ابنتها
تفصيل
بالفشل
المعلمات
يسرى
متأثرا
بحت
وشرح
الصدمة
وهدف
تأثيرات
الأثناء
الصربي
جارية
بالعالم
كويتية
##ليغ
الابحاث
المرجعية
أملاك
مستوطنة
ويليام
ذكريات
جماهيره
##وزي
##كتة
والتحديات
##لاءم
الاحتفالية
ثانى
حاضرا
مقرر
##وقعات
تؤدى
إعدام
والمنتجات
مرشحي
تقم
السور
بالبحث
بالمش
الأربعين
اساسية
وداع
الأخلاقية
العمود
الجوفية
يعطى
باشرت
التحضيرية
بلاتر
والاب
مسلمين
والاسلامية
الحقبة
##ران
قانونيا
وأدت
اجتماعيا
خور
وتأكيد
##لافيا
الالتها
والمدن
المبدعين
المدرسين
##كتاتورية
عباد
مناهج
أوا
الفعال
العسل
##مأنينة
القات
استقبلت
##لاش
تيسير
مقيمة
فإنهم
ودائع
فاطمه
للرعاية
الإيرانيين
103
ينظمها
##طلاقة
الزر
بيونغ
وأخطرت
ومق
الحوافز
المماثلة
##يوبي
ومازال
تود
الجزائرى
الوعود
##اشا
الشمراني
كينيا
قرعة
بالحضور
التونسى
يمد
وضعية
التعايش
الفلبين
السخ
معاد
النمط
##تماع
لبث
##كش
واقترح
##واحد
الانتقالات
انسانية
##كتورة
لزوج
##يدن
جريحا
المغاربة
اسقاط
بورت
##69
نظمته
الماز
الحسنة
المحاولة
الحافلة
يحتفظ
مزورة
والداخلية
##عانة
##ستيان
##جيلا
والتأهيل
المتشددين
أوروبي
والمز
المخدرة
ولكني
أولية
ثمرة
بطرح
انفصال
صنف
##غلة
وإت
الأسباني
للمه
كهذا
الاوراق
##صفور
##يلولة
ومط
العقول
الحكاية
تشارلز
القدامى
يغطي
منظور
الاجراء
ولايات
لنيل
البريطانى
الجنائي
للتطوير
يعاقب
دأ
ملع
وبق
##رابلسي
الديك
نفذها
لاند
بالخير
##غور
##ذيعة
الليبرالية
بكثرة
إدارته
الضيافة
للإخوان
بالدوري
المظل
مناسبات
##غداد
رمزية
والوطنية
الانتقالي
أنابيب
وتعرف
##ia
الارباح
يعقل
الفحوصات
المرتقب
ونفذ
تكريما
بامكان
فلو
لخلق
والتسويق
وإش
##فاعلية
2500
مصالحها
##رضين
مصريين
المضمون
للسب
ينفع
تكريس
افكار
##ركون
نؤكد
عناية
لايزال
القاسية
اسما
##فاعلات
والحل
المشاة
رتبة
المتطلبات
اسيا
القاضى
الروحية
زمني
الشرا
لقى
التوحد
حاص
بمهام
##اريوهات
والإنتاج
##خيصة
الجماهيرية
فانت
فالع
ابوظبي
الصدي
والمط
والتلفزيون
##هراء
كاميرون
الكونغو
##سنان
زالوا
انتشر
مناقشات
لنحو
ملحة
المحاصيل
##سرع
يولد
الباعة
نيران
ابر
أنقذ
بيج
تعطى
وهدد
والشخصيات
يلحق
جنسي
مارادونا
##خرجة
معاملات
بأنفسهم
المنخفضة
139
وخمسين
اقبال
الاساتذة
بالتد
الغبار
تقدموا
##همت
اطراف
##شارقة
##ونروا
كاميرا
##امته
الإطاحة
أدب
كاميرات
ورفضت
جميعهم
بعكس
مرجعية
نوره
مسد
ولدينا
المحاضر
ويدخل
وجدنا
وتضمنت
نصت
التحريض
تقديره
مخب
لكثير
حارة
دوافع
ورأس
أجندة
لإصلاح
شالي
وحيدة
للإعلان
العرف
##بعاثات
والنواب
اتش
المؤثرة
لإزالة
الأخوة
وبحوزته
عثرت
##ثفة
نظمها
لمنا
ويدعى
العباد
ظافر
توقعت
أصبحوا
التطرق
ويج
استشاري
القصائد
بكركي
لعضوية
النجف
الابتكار
المعقول
أهدافه
إني
بقليل
فرانسوا
وتشارك
##od
لاستئناف
##شاطات
وديا
العبادي
الفتن
الجواد
خليف
قبلها
الميك
ينهي
معاهد
واثق
##عتين
اردوغان
يذ
دمرت
للسفر
الضربات
الحاز
لرفض
الضمير
المكونات
عوائد
المجمعات
تليها
معيار
##قوس
1430
مقبلة
والند
وأرد
مخز
البنود
عادات
شابة
الأوامر
يصور
##نعان
بالبلاد
##جنون
وطنهم
الغي
بوصفها
معمل
وتشت
لفئة
##ايغ
لانتخاب
ادنى
عدو
##كتوراه
فرانكفورت
مسعد
وانتهاء
##احت
يتمتعون
التها
الشعبين
الكاميرون
يأكل
وتحدثت
تتراجع
انعكاسات
مبنية
##علة
الاجمالي
وتجدر
مقاطع
يحسم
والصناعية
ويرت
138
مشاري
تحذر
حقي
والدتها
اطلقت
للجماعة
تواجده
يقترح
أخي
الجنز
الإبداعية
متواصل
الحفلات
سعت
وتمكين
تباع
امتد
يحسن
العقبة
مسيحي
بيده
##دنا
المكانة
أجور
نقلهم
تعبئة
عبدالناصر
منحه
انباء
بنين
بوص
ويزيد
ساق
الجيران
وتسلم
استحقاق
قلم
التسعينات
##صادق
التعديات
المتنقلة
عبدالمن
سيجري
القافلة
والمق
شهاد
والبرا
باحترام
240
بروتوكول
ويعيش
##ساطير
##يموقراطية
الوسيط
##ونين
والفن
أتم
الشاف
##عاطي
مخيمات
##mula
تحوي
بالتق
109
وخمسة
لغات
يستخدمون
باحثون
##طمت
وفور
حريصة
الجهني
وولي
والدينية
رفيعة
للمستقبل
المتفق
الثوابت
محامى
وصدر
##قالته
الأقرب
وللأسف
تخطي
الصاد
واما
باللاعب
1952
الرومي
ونف
نتطلع
إحساس
حافة
أخلاق
##ابري
الاخطاء
بنغازي
كاظمة
متزايد
يتسنى
نافيا
توطين
يفتقد
لارتفاع
وجب
تفاؤ
المذيع
الوالدين
بسجن
لجعل
إليك
##ظافة
المدافعين
الاسكان
التكتل
تعانى
نقف
غالى
##اسك
تعط
والأكثر
الموسى
المغفور
إسلامي
بالإفراج
جسور
والفا
التقليل
مصريا
والتك
##11
ينفي
مرتفع
المغتربين
العذ
بالمستوى
قطب
بدايات
الصلبة
المنك
والصناعات
تتسع
لاستمرار
مره
##شرع
##og
بالجز
تجسيد
عبدالرحيم
زملا
واعلنت
إط
وتدور
والجمهور
وتقاليد
السند
نين
وبركاته
والحزب
##شوفة
النك
الثروات
لطفي
الخلافة
افتتاحه
##رافا
البكالوريوس
##ونوت
الصالحة
المتميزين
##ربى
وعادل
النبوية
##رضاء
المبدع
الحقل
ظرف
الكلاسيكية
توافد
يستغرق
فاذا
ولح
بالجائزة
الحراسة
##لهي
سكوت
الضريبية
أكتب
##جداد
يرسم
يومنا
احمدي
1963
والإقليمية
الحاسمة
سهما
مسبق
العباسية
##يترز
وباست
##ئتها
ووضعت
لضرب
لوحد
إمكانات
السودانى
التصرفات
مليونية
أرادت
المصنعة
للهجوم
والسلوك
وأقام
جذور
بتأمين
##ثمانية
نزول
عبدالرزاق
والبلديات
##احا
##وسى
التخفيف
العصيمي
سيح
##فعالية
المتحد
للأم
##ميني
والحقوق
الضمانات
##بيتها
الاستشارات
والثروة
##ثراء
بممارسة
يعلمون
In
##ورتي
سقطوا
يهاجم
الترفيه
وواشنطن
الصلاحية
اريد
أمي
التوعوية
الكلاب
الظن
القادرة
الوقف
فلوريدا
تويوتا
بالسويس
مأمور
رهن
##طنها
##قازيق
ركب
جاهز
فاين
بموجبها
نهائى
مسيرات
بالصحة
##جلد
سيحدث
بصنع
تشكيلها
تذكارية
سواحل
تنامي
يحسب
جسده
##ماة
يحيط
بصد
المقالات
لامت
مؤتمرات
اسلامية
نبدأ
إدريس
إسطنبول
للرياض
بفريق
حجب
لكونها
اتخذتها
وأطفال
السيادية
المصطلح
عناء
اعتمادها
##ثوذكس
مزيج
معاذ
المنحل
القيامة
الهاشمي
بالقص
ميخ
والاتفاق
موجات
اعتقاله
راش
ووجهت
انعكس
المأساة
الصيام
أكرم
رمي
بريف
وأرسل
الذراع
يجدون
العائ
بالوقوف
1969
##اطا
المتأخرة
التسعينيات
مدرس
مرتك
داخله
للمستشفى
الاكتشاف
الإب
الدرامية
انتقاله
احتم
جوجل
والأمر
اللوم
##تيكية
ولقاء
تعميق
لمحمد
واقعا
الحوض
##تلر
السبسي
عني
وتجمع
الجاليات
العراقى
معرضا
المدمرة
بينت
عاشت
المصور
ديت
بشري
##انيون
الطبقات
خدي
##مجيات
يفر
ألمانية
وبف
وإزالة
المتقاعدين
البكر
الاسمنت
حزام
الورد
##راجعات
ربة
انتظام
قاعات
لسموه
##خيم
يخاف
تخريج
المصنفة
107
قوتها
والمكان
دخيل
ابتكار
يرتدي
بالمقابل
الباز
بالتج
هزيم
المعين
##تيق
للمادة
الشهرة
ثمار
غداة
واصبح
واسرائيل
##باي
وغيرهما
بالحياة
دخلوا
وناقش
الإيطالى
اللياقة
الجدران
مستثمر
ومواقع
##ويلم
مخلفات
##شائية
فيكتور
الاضراب
ننظر
والتهديد
الحمض
الاصلاحات
المطبخ
وبلا
البنتاغون
##ul
للتفاوض
الإسراع
نووي
ويب
حساسة
اوراق
يلتقى
مكتوب
##37
والإرهاب
ويساعد
شجع
شيف
ألبوم
بصحبة
إيراني
وشاهد
بالطرق
منفصل
يتمكنوا
1958
المقاولات
الصاروخية
الوقائية
وتو
وجها
بمعرفة
##ربها
مسؤوليته
تهي
واللغة
أعباء
اتجاهات
بقدرة
وخدم
الفخر
واستكمال
نبحث
لتسوية
الاجابة
وايران
مؤثرة
ضرو
شريكا
بعينها
مقياس
تستدعي
عبدالقادر
الألغام
سينت
هوا
لمصل
التحولات
سلك
مغادر
تير
النمر
أسبوعيا
وقدره
سلوى
وإنهاء
محلة
الاقتراحات
خطابات
ويتحدث
الخضار
ستيف
ورجل
الاماكن
بالقتل
نفهم
وبطولة
المراسل
القسام
وانع
##وثي
بلادها
بعناية
الثماني
دعوته
ووكيل
والحرص
وأسفرت
البال
رفعها
##وارى
لإنجاح
ريو
وروح
بأسرع
رأيك
للعملاء
شبان
وقته
ايهود
##سبيرو
سيشهد
ومبادئ
الحرارية
نارى
السجل
لسياسة
قلقه
الباه
الصم
بالاحساء
التميمي
أثير
##ثوم
1964
مقدمتهم
يتسع
تدمر
للار
##قوبات
فاق
الكائنات
##عدين
الأجر
الرويلي
اعلامية
سيظل
المشي
البصرية
##ارسال
غيابه
نرفض
خيمة
الفروانية
العينين
فعلية
ايد
يكرم
جنائية
طبقات
رومان
القطن
مخاطبة
المفاجئ
البلوشي
وكتاب
##سبي
جاكسون
واخرى
أمكن
سميث
يستعيد
قلوبنا
الأمسية
منال
انظر
لجن
ينضم
بحوالى
##شتاين
بشروط
اعماله
مهاجمة
##سير
ابني
يجعلنا
للقرار
تراب
رجاء
والجامعة
قولهم
##شعب
والأستاذ
والنصر
لصندوق
مدعومة
استدعى
برام
##طفولة
سجلها
كابيتال
##شغل
وضعتها
الكاف
##واص
بالكويت
المعتاد
تأثيرها
حالت
ديلي
والاستثم
الاجنبي
الإساءة
##روش
تأجير
اللبنان
##نائهم
حينه
نشوب
تقترب
تدريباته
##طارد
العريان
واللاعبين
اراد
الحاصلة
وأص
النيجيري
فائض
امتدادا
واصابة
برزت
##كدس
وتعهد
واعتمد
الرموز
التحية
##اكهة
وتحرر
مرسيدس
شخصيته
سرت
متبا
##ازرة
1425
الامطار
الضخم
المتواجدة
معلومة
##44
وزم
كيلوغ
بافتتاح
طوله
تسمع
باختصار
عقدة
ضرر
لدعوة
غادة
لنهائيات
وذهب
مشاركتهم
##صرى
المشروبات
##ئولة
قائدا
425
المستويين
لتعويض
ودوره
##غلي
##ونهم
الساخنة
الجليد
سياستها
اعتراضا
##فيوم
تنطبق
وأفكار
اذار
جنسيات
التسليم
الصفاء
وقلت
تروي
السفارات
روحاني
شهدها
كنعان
##سنة
##باز
##اخستان
شيو
أملا
يتغ
الملحم
سادت
النعم
تحتفظ
الحلفاء
هيا
مستف
إشراك
الصفحات
٠٥
##قاطعات
وساعد
الحجز
هدفي
الموريت
صفات
أجرتها
المعاهدة
خامنئي
ابرزها
أقدام
##ائكة
الصلب
##اقته
توني
الفقيه
لمدير
صحافيا
لكسب
175
تتطلع
الدبابات
##يانات
فرعية
مربعا
وشراء
الزين
ميدالية
اكس
الاستيراد
والحق
الظفيري
##عدلات
تنافسية
عبدالهادي
البلطجية
ويعتمد
##راقة
تقتل
غصن
فلسا
الجعفري
قومية
الإبراهيم
وصندوق
مادي
والاتصال
رومانيا
##وهان
المنتجين
لهدف
##متلكات
أبدت
التنظيمي
فتت
ابعد
وأدوات
سألت
تجتمع
هاجر
يقوله
ذنب
باسل
الشوا
معتمدة
بضم
##68
ليه
##لاوة
الفاصل
السقوط
تجر
المجازر
للرس
يكفل
نمت
اللهجة
تخوض
جرج
فعلي
##ملتقى
بنيت
السائل
##سمي
والسعادة
اقصى
بلح
مشتركا
تبرع
الأصغر
التأجيل
##زاي
بالتحديد
قيادته
وجا
##بياء
والوضع
المنافذ
الهرب
ويتابع
محللون
##رابي
بتعليم
البوتا
للجهاز
ينسى
##عاطى
مبلغا
فيدر
للاستثمارات
معالجتها
للاستخدام
المذه
منزلا
ساحات
منتجاتها
والمعن
يود
الاحيان
اتخاذها
وكلا
الاستحقاقات
لشبكة
سبور
للعنف
يتنا
بسرطان
ميدانيا
بحزب
وبعيدا
والاستقلال
القرم
تبذلها
##لهما
نعود
##حض
النافذة
مساعدا
##نابل
وأبناء
سرايا
يطال
صفوت
ستظل
فوجد
فرسان
فقرات
شورى
تلقائيا
الفرات
وصالح
ابعاد
للاكت
وثمة
الجنائى
للمواصفات
ذرو
مسئولي
سائح
البعثات
ومتى
تواصلت
##ربح
القيادى
اسرة
##ركت
ضمير
بكون
الموجة
الفترات
وثلاثين
مبدئيا
نفسى
احتفظ
##خائر
##ثوذكسية
صمود
منافذ
للمستهلك
الفعالية
لاتزال
مناهضة
الصديقة
الفيزياء
الموضة
##طجة
تدا
سيواجه
جهودهم
المراقبون
تعذيب
لفترات
لسكان
الممتلكات
القبة
التذكارية
زفاف
غادرت
أبل
الحلوة
وتوظيف
وكثير
تستغل
ببل
##كرز
فأجاب
بالمدرسة
تحافظ
أغاني
المفكر
المتواجدين
فسيح
formula
##جازي
ينبغى
تعقيدا
للمعا
لتجاوز
اتساع
وتهديد
والمشرف
لار
عنق
ورأ
وإس
ووس
عربة
ستجري
معهما
الاستبداد
الشرط
بفترة
تدافع
مواز
لرويترز
##قدرات
##وكمة
تجاوب
والنقد
والبت
ايا
إعلامي
توري
##كارات
ممثلو
الكذب
قواته
مدينتي
موهبة
للأح
##لازل
مستد
وآخرين
نزال
العامري
خطبة
متفر
##اغية
الفرسان
الفضية
تبيع
##يزل
خطا
زمام
##واضع
السكني
منق
##يزن
##وطيد
وثقافة
للعرب
##راكب
حكيم
الكري
معاون
والسم
للتعريف
حاله
خدماته
الممنوحة
والتغيير
التعاوني
متناول
العالمين
الحقوقية
مرتضى
موريتانيا
للوحدة
منحها
الموهوبين
##يتك
وكندا
وسلوك
##ذائف
يتنافس
تستضيفها
يدها
غزل
وإعلام
##ولوجيات
ومحافظ
تليف
نير
##احم
بتونس
واستثمار
للآخرين
شيوخ
##بائي
بجمع
لتولي
بحبس
بدائل
للتط
##فيك
لخفض
الأولاد
لإي
ووصفت
الدجاج
##اءات
نادرا
المزرعة
حدائق
الأسمنت
الدائر
كثيف
والتوجيه
نسمح
بالعيد
يقدمون
ازدادت
المسائية
والقانونية
ونال
خوسيه
وسهولة
مزار
##وفن
وردد
##سترول
فيتامين
ملكا
أنجلوس
الفنز
لإصدار
اقتحم
نقرأ
عملياتها
لفحص
##يريك
##ذرة
حبا
بالعلاقات
زغ
تايوان
قرون
الظل
##بيرة
عبدالفتاح
##وزة
مابين
عقاب
الذكاء
اختصار
الحاسوب
ثبات
##قاس
وخفض
موضوعا
ونواب
سنتيم
تضيف
الصب
الوقفة
هوليوود
وموقف
##هالى
الأسس
الناطقة
وفرت
ومستشار
ومقرها
لجائزة
ومستوى
الأنس
اعتمادا
حكمها
فيمكن
سرير
التمهيدية
والأدب
تابعت
للتقدم
##قلم
اعط
المعادية
الحراري
يطمح
الجوه
المكالمات
الحصانة
الجدية
للناشئين
المتعثرة
مقالة
متقدم
ضعي
لتست
منهجية
##ئيلة
سيلعب
تنتهى
##شاق
امريكا
بأنواع
للبنوك
##ريخ
ولات
الحروف
السمكية
تلام
المصاحبة
ودار
سفراء
بتعزيز
قاعد
اخرين
عانت
تقريره
الراد
البرازيلية
منيرة
الأشقاء
المراد
أمينا
المحرر
طار
بقرارات
##يمباب
إبرام
وتحتاج
##لائع
##وتنا
ملائمة
مأزق
روايات
تلجأ
بظ
##جواء
أجرته
سبي
بالعراق
والقروية
تفتقر
والمصالح
أعلاه
إتاحة
معتم
وصرف
سفره
بالجيزة
المالكة
ووق
طع
التقارب
التهريب
والبقاع
ممنوع
والفت
مزاعم
ببلاغ
##وراة
والعلمية
الاستحواذ
تجت
والرابع
وثقافية
##باحة
يتصرف
##قصات
جويلية
برت
متفق
1431
المزاد
شريطة
بوادر
يتصور
اجاب
المديرين
##وهين
تشريع
الصواب
باعتماد
مفاتيح
يقطع
وتولت
وحدد
طنطاوى
يحتاجها
والخبرات
التطبيع
يواجهون
سيب
##وزا
لأحكام
المانحة
وضح
مكرم
وتركز
##ئهم
والشركة
اجازة
##رقات
الإصدار
أعطت
كالد
وإصدار
مثالية
فيلمه
تتل
رحلته
سمة
باشر
سلمى
السبعينيات
بحملة
##ركب
##وبه
النوايا
استهل
##قاته
هزم
##ورنت
##صادف
ويدعو
والمسرح
صادقة
الشح
المتصلة
دولا
معناه
بالتر
أثينا
دستوري
والسيد
##شاشة
ونجاح
دراجة
الصومالية
ويشار
وعلاقات
يتسلم
التأييد
ونست
الأدباء
بهيئة
الإشع
بالحكومة
يسب
الموضوعية
موكب
ينزل
##ثمين
بالانسحاب
والحركة
نقابات
##سوف
الممر
شكلها
##قبلي
هيبة
فوزى
عملاقة
لجوء
لتشغيل
عصابات
العمد
##بثقة
يستخدمها
برأسه
والإح
يعل
الراقية
تصدى
مهامها
الاسرى
##عدم
أصيبوا
##قلص
الخريطة
الاكاديمية
والموضوع
يتسم
حضارية
الانماء
لتط
الحرجة
الناجح
الوكالات
وشرك
ولف
تأثرت
1965
يكسب
وعدت
استمرارية
ومالي
##ندة
الهلالية
الختامية
الجاني
للبرلمان
مستعدون
قاطع
التهمة
للنشر
##وياته
وقوى
محبة
الملحة
لوجه
شرطي
الثلوج
##ماسك
الانفص
مائ
إصلاحات
البصري
تشييد
واستطرد
ترشيد
أجلها
##قطر
##ادرية
##ميمة
بابل
مثلها
مستوياته
الفراعنة
صبري
والقرارات
تبعات
باخ
للأنباء
##ماسية
تكلم
والفلسطين
وتجديد
##زمان
والمحافظات
##كله
المدرجات
كلود
وراءها
مستهل
وراءه
ضرائب
عزام
لوحظ
ويملك
صالات
لتوسيع
بالمسؤولية
وسعيد
الفضيل
الصفاق
وفعاليات
##الكه
يحا
##ينيو
مدحت
وبقيت
مباني
St
وجورج
الاحتمالات
المفضل
تكتمل
##وبها
بديع
منطقتي
المطربة
بورقيبة
تنشأ
والقص
ناجح
موانئ
بقبول
بأصواتهم
##خامة
##يرلندي
ارامكو
الجهوي
مقص
مستلزمات
يومى
ذروة
درج
الأوكرانية
بالنيابة
الشاه
التموينية
بالجهود
##فسار
أعمل
##عاوى
1701
المعلق
الليبيين
##افت
القصاص
فقالت
معنويات
##مرتبة
الموسوي
إنساني
لطيفة
كارتر
##ضول
وفن
المنق
الشرعى
بالإسماعيلية
حوارا
الدائري
##اليه
بهية
ضيقة
والقتل
ووالد
104
دخولها
##وناكو
بيضون
كلثوم
##حيرة
##عادتها
جانبي
إهمال
مخرجات
##ابان
بقر
التحديث
شيوعا
##جج
تجاريا
مرفوض
##ck
بصوته
ومرا
##يركية
وسعد
يزالون
##امرأة
للبدء
##وسية
وإخ
العريق
التوترات
أناس
زلنا
لشباب
##طيا
اذن
وبنك
بمواجهة
##وغوس
المود
الحبس
اليونيفيل
ناحيته
والمستثمرين
رئيسه
٠٦
بأح
اطلاع
للمقا
بتكريم
##كاديميين
شهرية
الرقمي
والنهي
معادية
والاشت
يتوفر
بذلت
هدفنا
والسماح
تسلل
مصاف
ويستخدم
يريده
بالاتصال
101
بحركة
ترو
تكاف
الصادقة
أمره
الافراد
##ودى
##وعها
يحلم
الصفات
الفروسية
توفيت
عبدالمنعم
الإطفاء
أنواعها
Sp
الحياتية
ترتكب
لرجل
الضربة
يعترض
احدهم
المعرفي
حرجة
الحمادي
أعلام
اسعد
التقط
السمع
بروز
##ow
وتقدر
وتصدر
بحقهم
##سترا
يراها
وأكبر
عذ
عالمنا
المكثفة
اواخر
المنفذ
غرام
##زلاق
##رحان
السفراء
مجاورة
البولندي
للاعبي
الأصيلة
بلدهم
الجهل
اعتقاده
المطعم
والضغط
العنيفة
الصراف
متخ
ونفس
وسياسات
إحنا
تضرب
##لته
الأقوى
غموض
دبلوم
##عوبات
المحروقات
##لتراس
السديري
اللاس
المرضية
أردت
علقت
التشيكي
أينما
الحجارة
ليتمكن
استعدادها
تأكيدا
الأحمدي
سيجعل
فأنت
##يسن
الارجنتين
ويرجع
##ذبذب
الرؤى
والوك
بمستقبل
المستقلين
وتوفي
الأورام
##بؤ
بترو
قاس
الصحراوية
مهرجانات
يظن
##طرتها
احتكار
##34
##خصيب
الرمادي
لبلاده
الحصص
دينا
تسليط
سيمون
أمامهم
اجريت
الاستشاري
محي
التزامات
طائر
والشورى
##مائه
##حمت
سجلات
خطيب
المثليين
لنجاح
استخبارات
علاجه
فهمي
قادرون
الأوبرا
كبر
فلاب
هيفاء
راه
للتنظيم
##شيات
وبير
##كتلندا
مواقفه
الأسير
نلاحظ
ركنية
المآ
وأقر
##وائى
إطلاقا
ويواجه
حضورها
وتجنب
التقويم
بيني
واللجان
كمين
##ادير
التطبيقي
القرصنة
ملتزمة
مصاريف
الجنين
يمن
كأول
بالسلاح
وصفته
طبع
##احن
تها
##لايا
انفلونزا
ازدهار
عرش
والشعر
بسوق
اهت
##حاسيس
محله
##وصي
مصرعهم
##هاجمة
بيانها
##رعا
ابدى
إكمال
وطبيعة
##ماطم
دجلة
متعة
التزامها
##31
وعمرو
اصول
الشائعة
سيولة
الفيضانات
يقين
خضم
##اتية
118
فاقت
شاهدت
عمالة
##جته
لتأكيد
وطرد
متوجها
الصفة
والأحزاب
مصمم
102
ديال
فهيد
شمالا
المعتصم
والابتعاد
مراف
##ياغ
##عج
مصالحة
العرش
##مينيا
الحافلات
جرحى
##ئران
مكانتها
الجامعى
بأنني
الخلفي
والجرحى
الحربى
افر
يحرم
استطيع
ملتزم
##ريز
عنك
اكتفى
مختبر
لجذب
٠٤
ويقدر
مصيره
مستوياتها
بإلقاء
هالة
سيصل
صحراء
محو
عبء
يوحنا
أتوقع
والتضامن
الإفصاح
##يعابية
انتر
والتحقيق
للقمة
سيدني
أعادت
مجتمعة
كأحد
تكبد
مخزون
بالمنت
مختصة
الزجاج
الضرب
وشعبا
##ئام
والأنظمة
##عمى
المتورطين
وحالة
وتصميم
الجهوية
جلد
##ثيوبية
سورة
والوزير
##ناد
ونساء
##غاز
بالمشروع
ندوات
المعمارية
لمشاهدة
القبيلة
جاهزية
آباد
##جبات
ماسبيرو
##ويح
##اديش
والبرت
##وزه
يصاب
الكرا
فلابد
##اردين
اضطرت
وقواعد
يمارسون
إدارتها
للعمال
المفضلة
##لعب
##راحي
بدوري
وتنت
الآلات
الدينى
نفذتها
المطبوعات
موري
يتجزأ
اختلفت
جنسيا
احتفلت
سوا
المذهب
اللحم
وثالث
المصادقة
##انيت
خطيرا
الامكانات
وينب
خاطئ
تتركز
إضافي
إنفاق
##ik
وأثر
سلمت
تجا
نظرنا
##آكل
استغرقت
استراتيجيات
يراقب
##شئة
كادت
##فيو
وتزويد
تسديدة
##يابا
##عاه
##ديلا
مهنا
إبقاء
يسعد
المترا
باتحاد
##سلية
مائدة
##يركي
مطابقة
لعودة
رواتبهم
مالا
فأكد
شاملا
ووليد
السنتين
وأقول
يتواصل
ويعرض
وعز
والحب
النازية
##جتمعت
ينافس
ناقشت
والدور
الاكتئاب
شبح
الشيوعية
لحالة
مسلمة
لإحدى
##غض
التشجيع
1961
مهددة
والمنشآت
##غلا
العود
سيخوض
دال
##طنان
انتشارا
القنبلة
##72
والمهتمين
الثمانينيات
الباح
وآخرون
ومازالت
موظفيها
الاخبار
يشهدها
والمسم
يطل
ليعود
الفيدرالية
مغادرته
يعارض
والوزراء
##وجستية
وإيطاليا
وطالبات
واخيرا
التقيد
تكرر
معلنة
قبضة
والاطلاع
الجادة
بالسياسة
الإصرار
حلفاء
صدم
حاشدة
صبرى
بالنجاح
للفت
##ers
أباظة
صحافة
فاتورة
هتلر
##71
للوزير
والمحبة
الأكل
مقدار
قلبية
يسافر
ذكرها
شائعة
##زاد
##ريكية
لحو
ماريو
اعتذر
لاسرائيل
معقل
الكيمياء
ويحقق
والصيانة
قيامها
الصغر
السولار
تصلح
كأنها
المناهضة
القارات
ورث
تايل
اللبنانى
عنهما
1950
المصابة
الازدحام
انسحب
الاصابات
كحد
وإنه
زملائهم
الكرسي
إدوارد
بالدولار
##ؤلؤ
الورقية
ووج
##نسية
##واجية
موضوعية
##ياطين
السكرتير
يبعث
1966
الروسى
علمه
طرطوس
تلتقي
يتزعم
##كنه
البتروكيماويات
##جازى
منافس
الخيول
دعي
والمك
المطلوبين
الأديب
##وارنة
##يانمار
بالشأن
الصهاينة
المسئولة
الحميدي
علاوي
وأصدرت
وشروط
صينية
لقبه
يتق
المجاهدين
تسهيلات
والمؤتمرات
##بتين
لاحظت
ماكس
تسريع
المحتاجين
والفني
التامة
بالعربية
##ائفية
##نعت
يكونون
##تري
والكتابة
##ضاي
وأمل
للمسرح
اعترفت
الإنذار
ودولية
عمه
اجرى
استرداد
النجاحات
منتجع
الروتين
بالمعنى
خضراء
##صلب
المعاش
احتياجاتهم
للربع
الغداء
الابداع
ويلتقي
عمري
والمخرج
الوع
ألفي
عبئا
والعمال
مجهزة
الدنمارك
##ائحين
##اطرة
##يلون
##ضبان
##32
تباعا
قصفت
للقضية
طوق
برنت
الميثاق
التخفيض
وأربعون
المتفوقين
المتفجرات
128
استحوذ
عداد
الفاخرة
السبعينات
حنين
حكمة
الغازات
واليون
##ذكرا
يوفق
يفعله
الخبي
خرجوا
ستواصل
يسود
ومنه
بخمسة
بالاعتداء
يشترط
ردت
##ذارات
ماهو
التقاليد
الخي
شير
قرروا
المخابز
تلي
والبالغة
الاهمية
المدعومة
الاتفاقي
المناورات
##يمار
تألفت
المنه
للإرهاب
نواة
المتتالية
طي
التخلف
##حوص
أمطار
فمنذ
##كينة
##نيها
تغيرات
شاع
التفسير
ترعى
الاضاف
عراقيين
عدالة
126
الشرائية
وبالتحديد
فلما
واردات
الجنزورى
الحقول
اندونيسيا
احتجز
مخلص
ملموس
صرحت
تطلع
اكتساب
الرزاق
خلفان
غولد
يمثله
سوءا
انضمت
تشتمل
روابط
يصرف
شوقى
المرئي
تباطؤ
وجودهم
لطالما
هلا
انفتاح
نبض
بالإمكان
والاحترام
أهلي
التليف
الضعيف
قاع
الكولوم
بأفضل
ووجدت
##كوادر
شقيقة
إنا
مهي
مكي
كشوف
##ودر
أكسيد
وظروف
يوحي
##ؤس
والموظفين
الشجرة
ومدرسة
أنشئت
مرسيليا
مسيحية
هبط
للارتقاء
متو
الجمهوريين
ثقافيا
والشفافية
حضروا
مردود
نقا
والمحت
بمق
المقابلات
واين
لمنح
بتأسيس
بالاه
CNN
روان
الانصار
وسائر
وبعضهم
سبوت
السلمى
وسوق
دورهم
الأجرة
##ئولين
1954
##وادي
##غول
واستعادة
بشرطة
عنيف
يزعم
توفرها
اصلا
وبدلا
طريقا
عان
##وسن
التحرش
الانقاذ
المنشطات
الادوية
للقيادة
129
الروائية
فإنني
##بلور
انتزاع
لحوم
##وياء
أعوان
الوطنيين
ورسم
الرئيسين
للاعلام
نتي
##فرين
الميزان
جيرمان
لروسيا
تمثال
وسليم
التعصب
معتمد
ولى
الرهائن
يبين
المفقودين
ترفيهية
بكميات
فط
يدركون
أتحدث
أصدقائه
##ركبات
تتطور
##راسكوم
عياد
بالماء
الابتدائي
الضعيفة
الحث
##رواتي
##ادسية
اسس
الأنبا
هوب
القاء
بتخصيص
ليرت
##قدار
المتعة
معسكرات
البلجيكية
##and
##لالها
المخزون
##يدها
##زابيث
جسيمة
##سياسات
المقاهي
الحنيف
تسبق
##غلت
لمواكبة
وتكر
الظهير
معقولة
##ومون
روايته
ومث
مقهى
بالإدارة
تعليقا
الداف
رشح
الشواطئ
يرمي
خزينة
##مدت
التنقيب
بوصول
يعرفه
الخفيف
والفل
القفز
وجبات
السجائر
لوزراء
جانبية
تخشى
##حقين
##ظومة
##شهر
أجله
##تافات
سيصبح
مبان
قذيفة
الباقية
يرأسها
الهن
جذرية
للنمو
خاضها
##غيان
ادعى
مقالا
ترض
والتوجه
الأعظم
##ناسبات
##ريكة
لإقناع
التحرر
مقاربة
والرد
الأسبانية
لتأهيل
##كسير
وتولى
##ثاث
##اطع
##هشة
وقوانين
بارزا
##ليلي
المضط
غني
##يمات
الصناعيين
لصد
سيلفا
##فاقس
تلفزيوني
الأطر
دعاة
حقنا
زبائن
موازين
بوفاة
لقسم
##ريلان
يحصلون
المختار
وبص
حاملا
واشاد
للمحاكمة
تنفذها
لرؤية
عسكريين
##صيلا
##روعي
بيوتهم
المعقدة
أغني
غوغل
يخلو
استفادة
شعبها
انشطة
الأمثلة
إتش
وأظهر
وأكدوا
سيطرته
رصاص
يفض
##اتهامات
الماليزية
مصاد
والشاعر
غروب
والأخرى
الحصن
تنويع
##مهات
الجدوى
الحى
الحضري
تدني
##واجس
تستعمل
الغائب
جموع
ونمو
##هق
والأفكار
الرباعي
إيرانية
الموق
رأيي
أصابت
صريح
تيل
تتح
عقلية
##ؤم
يحرك
الكه
تخلى
تقاعد
مثقف
##يفه
القرآ
##سور
أغلى
والزي
##باخ
والإسلام
وفود
نيابية
الجفاف
كلفت
بمنت
جديا
إلخ
وبرغم
يصار
##داسة
كروز
العيار
باتريك
الرياضى
ليونيل
سانا
ويند
الدواسر
الاذ
عيار
تتواجد
اللغوية
ضروريا
وكثيرا
المشوار
وجاه
##وهرات
##حتنا
مبررات
##وظائف
بمقت
للموقع
ثمنا
سياحي
المحمود
وكتبت
والتوزيع
##طوش
الراف
##ابلات
المثالية
تقاسم
المحكوم
وحدهم
لمشاركة
أجري
شرقا
برقم
مباشرا
الناشطين
الجنيه
وشي
مبررا
##شجار
كريستيانو
تلمي
ضواحي
وتحقق
##زلنا
فيرج
والمعارض
جامعية
إجابة
تندرج
بضبط
##بارى
السهلي
مقدما
ولإ
##كاوي
المحررة
ولولا
اليامي
المنشور
##فجي
والاستعداد
كوسيلة
الاسبق
محمية
طبيعتها
الشوف
والنمو
##لهوب
أدي
للوزراء
رحيله
وممثلي
المواعيد
المتوفى
##راهم
وأرجع
تميل
اقناع
الذهنية
بزم
##فيها
السحر
يوضع
##صلي
وزادت
##وتشي
المساعي
طفرة
كيميائية
والمالي
وإصلاح
سيئ
غامضة
بغرفة
يرصد
النفق
الإهمال
عواصم
بدايتها
كوند
هجمة
بأسره
وأفريقيا
ارسنال
ونز
بتصوير
تفويض
لاستغلال
مغلق
الانحياز
##شئ
سعره
الموضوعة
صحته
لرد
بشخص
رغبتها
الهيد
فسيكون
شرو
وثمن
اندي
بأمانة
ضح
معبرا
تدوير
معلوم
الرشوة
لقطات
الإجتما
ومعها
وكلها
النوادي
بحري
للأفراد
رايتس
عساف
تختار
ميخائيل
وآثار
الكوكب
##قراص
القاض
انشغال
دف
حادا
للسينما
لنفسها
الآمن
##رقت
##لقوا
العطية
الاعوام
##ئحة
الهفوف
أفرادها
والامن
وبالتعاون
آند
الصايغ
بمص
التردد
أولي
وبداية
الآبار
تحويلها
##لائنا
يمكنني
##كني
الساحات
الاسترالية
للإصلاح
ووطن
الأقليات
للمواد
##وابير
بنها
##انتهم
وثاني
متكررة
##أله
وقيادة
خاطر
للمدارس
الشجاعة
تنشط
المغربى
اهتمامها
لاذ
إنتاجية
##وامع
##نياء
بالنادى
إهانة
صدا
لفض
كلاعب
نود
وفشل
##طانية
غيرت
##ويري
##42
وتعلم
وإضافة
احدا
والأخير
##صدة
رفضهم
صداقة
##رايا
واللوائح
يقابل
##كلين
الجزائية
سعداء
##امش
وجائزة
المسمى
امرا
وبمشاركة
هدايا
والموارد
اذاعة
زعي
اقوى
خامسا
المقاول
سوليد
##جدة
صعدة
كورنيش
مجهولون
##شب
المعاني
وأماكن
شعره
الادنى
المضيف
وردة
يدوية
والمنتخب
تدبير
مصور
ناخ
##نفذة
ميونخ
المازوت
##منهور
المحم
حبة
صحافية
مخالفا
والحرب
ومكتب
متأخرا
الارهابيين
الشامسي
الحبيبة
الاسكندرية
وقرارات
جاره
##يزو
الصعيدين
ربي
بمراجعة
سلمي
حلبة
متوفرة
والسكان
آمل
والفقر
فيكون
##انهم
##فالة
القلبية
والمطالبة
##فاية
بانتظام
بالمحافظات
سلف
ينال
تتصل
براد
العنكب
تخصصات
جناته
##ؤدى
ذكرته
والوسط
كوين
تلتها
الدفاعي
الفارسي
استقرت
ميلانو
غابت
للدين
قتال
للعملية
المجلات
فاجأ
محتوى
أسهمها
بالإعدام
الحوثي
لمراجعة
إفطار
النخب
أحمدي
116
الشبابي
1959
ودائما
لاحقة
الاسابيع
للموظفين
لال
بالقيام
عابدين
البصر
الراعية
##ستم
لفائدة
يناهز
المستحقات
سامية
ذاتي
الدرع
النصب
اشاد
مجموعته
##نتان
الستينيات
مصالحهم
العريضي
ميجا
##علامات
ضاع
فادحة
قدراتهم
والإسلامي
ملزمة
نافع
أمضى
وفيات
رؤى
بيب
أبسط
بأحدث
جيت
##IN
أعضائه
يحظر
للتخطيط
الزائد
تغريدة
الدافع
التحديد
شددت
مرجع
يسار
صريحة
تعرضها
حتفهم
داي
تسود
المأزق
بولت
##حلل
فذلك
سفيرا
##طمأن
تخصيب
إسرائيليين
مواطنون
نفعل
القارية
برح
نفكر
الشرائح
##كتوريا
سمات
أرضا
الغنوشي
تحصين
119
##حدي
وباقي
##عيها
المرو
لإثبات
الغوطة
بإسقاط
هاري
باقر
صناعات
تتلقى
للتصدي
انتحار
وخروج
هامبورغ
سميت
المنظور
السلك
والسكر
العزم
لول
اليت
الآية
والأربعون
بخيت
##غدادي
بته
حزبا
حياتك
تشكلت
ايجابيا
التحسن
تأشيرات
للمتهم
قبة
ومساندة
هيمنة
ميكاني
العصابات
ثمان
بوق
فاعت
وحدث
##شيت
زعزعة
وتمويل
##كتبه
المرتبط
لجهاز
تصويره
شغب
وعثر
تلقيه
وعددا
وباسم
حفلة
تمارين
##هجير
اهتمامات
إيداع
الاجمالية
قدراته
لحكم
الإدلاء
القابلة
وفهد
وعمان
والمواصلات
تقطع
##يكيا
نجله
شواطئ
##صلح
الستين
الأعصاب
مفرح
الأجزاء
##شور
بالمحكمة
وحكوم
ومرة
وجيه
نزيف
##تز
سنتا
##عميق
##ضاوي
الاضرار
##ess
مرس
معدودة
##تمييز
##ألوف
##يجابية
##ظاهرين
حبه
للاجتماع
أدر
ولاء
عمدة
الوحد
فيست
ومض
المغادرة
الجاسم
أرجو
بمرحلة
رافق
جيه
التشا
ويرفض
البلغ
المغل
##اتة
أردنا
بوح
دشن
وتذ
ترصد
الغربيين
والمشاكل
مبديا
التقليد
وغدا
##ويضات
سلعة
لإحياء
فيا
لند
والجدير
أيديهم
ثامر
للأد
يهد
##IS
حدثا
بوي
السداد
##انيك
وأهمها
إيقاع
وشاركت
أصيبت
بالبحر
يفضلون
عقارات
الصفاقسي
وتكنولوجيا
مسئولو
والفرنسية
بخدمة
تنعكس
كتيبة
صان
والنفسية
يدع
خلدون
بعقوبة
تناولها
فورية
التصحيح
صراعات
القياس
ناسا
حجازى
وظهرت
فيروز
يبرر
والسيارات
نتمكن
العاطلين
##ادهم
للتنس
الإبقاء
أرسنال
الليم
باقة
رمزى
الصوفية
وطلاب
##الجات
طباعة
ديننا
الصرح
##ونو
وأفغانستان
وقيل
اغتصاب
##شترك
##ودت
##رقلة
مستشارا
واللقاء
بزمن
للصناعة
مستندات
حرصه
##جيبة
فانها
أعماق
##قلون
والاصلاح
كاهل
جزائري
الميلادي
بإنهاء
يشاء
والإعلان
إمدادات
متشدد
اتمنى
مضاعفات
##ربيعة
مجدي
تأدية
الهادى
##عتنا
وإعطاء
وسحب
لأهمية
إلحاق
تغلق
موناكو
أسوار
بالتش
##راطات
العادلى
بندقية
مذبحة
وأغلق
استغرب
وآسيا
وحذرت
المحاذ
##قلي
وعددهم
ووضعها
##رسل
الذروة
مراجع
متزايدة
أعمدة
ليح
غور
متميزا
الماشية
ويلز
يثق
اشتهر
ولديها
والصيد
##ؤوب
بتكليف
ترتيبات
##سكريين
قارة
المباراتين
أهلا
جنازة
مسؤوليات
الغلاف
البلاغات
ضئيلة
##ولوا
##راؤها
وأربعة
أبلغت
للجهود
ايصال
##مرضات
متمر
الفورية
عميل
##كست
الفقري
الحراس
عنوانا
##ئيين
##يثي
المرتفع
الطلابي
ريالات
الأجسام
ماجستير
ايم
احر
السماوية
الأسبوعي
الصالات
جليا
والرقابة
مقره
بعينه
التعددية
ليبلغ
المانع
الخلوي
الرفيع
الحري
والمصابين
للزمالك
لاننا
القتيل
##لندي
بتهم
إرساء
ولع
##ويسرا
بالأعمال
السفيرة
والاعتماد
ارقام
لتركيا
##رائي
أهميتها
عو
وتوحيد
موتورز
والدخول
بالدعم
فرط
عملائها
##فنا
والظروف
تمنى
الفريدة
145
للصحيفة
الاضطراب
وطارق
العروس
انطونيو
الإثارة
صغر
650
وسدد
وإرسال
1432
هندي
ينام
بفيروس
الحشيش
التسليف
الشيباني
بدار
بنز
سراحه
قلقها
العطل
وطريق
المسؤوليات
تغييرا
الغاض
منتشرة
الكسب
والصور
للهلال
انتصارا
النصاب
الصديقين
المداخل
##77
##كماش
الشهرين
بلدات
وضعنا
العوائق
والمواقف
حولنا
يهودي
##اليتين
كرواتيا
وشخص
ميزاني
معاقبة
ترشيحه
علاقتها
##ابرز
##رامة
##قيتها
يستوجب
للأبحاث
##كفل
الماك
##جولا
المناقشة
نعمان
لبرامج
مؤمن
وزارتي
##سوق
المجانية
بالصورة
الملاحظة
##اتير
وتحاول
الركبة
الإشك
للملك
المعابر
شبيبة
مستقر
الاستغلال
الدمج
ووحد
الأسترالية
الاعمار
انور
حصتها
ترتكز
روني
باستقبال
##واك
اتصلت
الأوز
الضارة
##شييد
والتب
والاكت
ضبطت
يوازي
الاكثرية
اصدرت
الأنبار
المطروح
عملة
##اثون
حمدين
وكلية
يرم
الملوك
ندى
الوهم
واستعداد
والإداري
أدائه
يملكها
##ورون
الجند
الاي
##عمرة
والأمين
تزوجت
صلي
الرابط
للفصل
##فيديف
جرام
##ماوي
لموظفي
المعز
نسم
الإضافية
يتساءل
الأقلية
مفاجآت
أسطورة
مصرفية
دافيد
حكايات
صيام
طلي
الجبلا
محتويات
لمباشرة
برسالة
للمعارض
فيلي
وأساليب
الازرق
الرجاء
##اهية
سيعرض
بالفرار
الباقي
لأخذ
أفكر
المون
بيتا
مروحية
بولا
تفاوض
الاحتقان
الدبلوماسيين
مدروسة
حضرموت
ويتكون
وتتميز
ناتج
أحاديث
تسفر
الاحمدي
محبي
ينتشر
عايز
البكتيريا
الظهران
##سلل
رحمته
تأسس
سيدفع
##وون
والأفراد
##لياف
غينيا
##صقات
اشرف
الأعداء
الظرف
##ay
ولغاية
الخليجيين
الكترونية
الخاسر
لاسباب
أوصى
العمانية
المعتادة
ووتش
الأستاذة
ويدفع
بلوم
##كدا
##وليت
بالدفاع
مركزي
مطاعم
بالنفس
بإزالة
سارت
وأسباب
##33
##فاؤل
شائعات
تتبنى
يروج
أنفا
لضغوط
الزا
عرعر
فأصبح
الحصر
ومضى
رشا
##ثني
لقياس
المتشددة
الإعدادية
استنكار
مصارف
بكال
وبعدما
##شياء
تراوحت
مسلحي
والقط
والكاتب
تشريعية
والأهلي
زور
السلطتين
مشرفة
سببه
والجميع
نقدا
أطلقوا
بوف
عائلية
بالمجتمع
معكم
الحاليين
قدرا
زيارتها
كوري
المولود
الزقازيق
بالكلية
اليمنيين
معلقة
الأسف
بالجيش
ومهارات
حزبية
التعبئة
المسنين
والبنوك
##دار
البرغ
قارب
والمم
القائمون
المعالج
تضامنا
1949
وأجرى
أمينة
دورتها
سعوديين
للسلطات
موافقته
عاملة
لقضية
كريس
واهم
والمعروف
تركزت
شلل
المتو
ينكر
الإنماء
الناجم
تونسي
المغناط
المحتجزين
الجسور
والفكرية
سبوتنيك
فلس
ناديا
للآثار
النداء
معقول
والسن
وسرقة
البرادعي
النطق
تلاعب
بالنفع
112
مشاركات
1400
الأناضول
محفظة
عقيد
والتسامح
تضافر
بنادى
والمتمثلة
يتل
بعشرة
دفعها
عائقا
المجزرة
والوا
الإبل
##لاقيات
##برير
الرئة
مستغرب
فالإ
##تاح
##نانة
مؤهلة
لشن
وأعربت
استلم
وتستخدم
معروفا
وبدء
وفاق
شرسة
##ضاعفة
العيادات
155
صفحتها
معلما
نادية
ابتسام
نينوى
بذكرى
##بب
الاسود
وورش
أنماط
مدته
قياد
تتوافق
##ظرية
تستوعب
التابعين
عوضا
ايل
هطول
ودعمها
بمواصلة
لطلبة
الاقبال
اصطدام
الشروع
مواف
للإنتاج
والندوات
حقائب
##وفيا
وسقط
انتقدت
اعض
اسفرت
شتا
##سمان
أذهان
وعملت
إصدارات
بشكوى
بمنزلة
تشر
واستبدال
ادارات
الفحم
وفهم
##وراء
##يشو
2030
بانفجار
قلقا
##رقوا
ومعن
والابتكار
الانخراط
محف
تراقب
ومكاتب
البترون
خيبة
تحتضن
٠٣
لأد
والفوز
والعناية
إعلانات
##فاوت
للمز
تقاليد
##كيه
المعماري
يشتمل
زجاج
ومج
شكوك
وقادة
تنسي
صافية
أدان
وبينهم
المحاماة
تليق
تنفيذية
ترافق
التسع
بصمة
بالحوار
وظيفته
كوز
وأنظمة
الضبط
وذه
توعوية
بثقة
شط
مرونة
##حلول
أجرة
وقيمة
والأصدقاء
منتظمة
ثبوت
مراق
##كتلندي
يجت
والشي
إطفاء
والقلق
##مند
##فسر
بالمال
وتمر
ايس
##تة
الشد
الأصيل
السعدون
ستشارك
##فتين
حكومتنا
الاجتهاد
##شفة
الايدي
مارون
بمعهد
الحشرات
الاقتصاديين
الإيدز
محركات
والهجرة
متجر
لاستيعاب
تعيق
وتنتهي
وبموجب
بالجمعية
اجتمعت
الجزائريين
بأبوظبي
##رويد
حمى
الظاهري
##اجية
##كدة
ومدن
ذكور
والستين
الملكى
بطلق
مأدبة
محققا
النشيد
التشكيك
برحيل
##لازم
بالرد
موم
وخصص
اعتباره
رحبت
إبداء
جمهوري
افتقد
الراب
صحيا
##سطة
لموقف
القرون
الحاجز
وفكر
ليب
النبيلة
اركان
الرئاسى
وبالإضافة
إيهود
الامتياز
ذريعة
تقلص
إندونيسيا
والعافية
إداريا
والاعتداء
اولئك
##طعت
ورفعت
تذكرة
والمث
##وسكو
يحمله
تسعين
المعنوي
احتياطي
للإد
179
##كريس
الآمنة
الفاصلة
بمقتل
ابتد
لمصالح
ديموقراطي
##وادمي
مولود
بلان
المريضة
تخريب
البغدادي
بوسائل
النيجر
العصرية
استطع
والسلع
وبيان
230
الفائض
ولأول
ناشد
دفاعية
يعاد
##لهم
الغوص
للجماهير
الهرمل
معوقات
ارادة
تكامل
جرين
فضية
الاحترافية
ترددت
##سبر
التونسيين
والتميز
المتهمة
ونقص
إهدار
السلفيين
كلامية
للمستخدم
الكلفة
النائية
سيساعد
ضعيفا
وقيادات
الفصح
الكوي
وشهر
ومحت
جاب
فلت
قتله
بريمن
يعرفها
تأسيسه
الدير
بيري
الليث
الخشب
تحدي
المؤيدين
الزرقاء
##ظائف
والجهود
وكسب
عريقات
الوسطية
التنموي
سينمائية
مقاوم
ببطء
عناصرها
الانطب
موظفو
للمدرب
اعتصامهم
التقديرية
بمحكمة
استرجاع
للنقاش
عسكرى
انظمة
وحافظ
الاخرين
المسكن
إستر
وفازت
طفيف
بائع
صمم
الفندقية
الاسلاميين
اصابته
ومواصلة
بعضهما
وصولهم
اليع
الأكس
فوزها
السعودة
1424
بمفهوم
الحقائب
والمثقفين
فبال
##بابات
تضاعف
##يرس
انتخابي
الآلام
فالر
والمواقع
مشهور
للهجرة
أبنا
##جاد
فالق
وثانيا
يأتون
هدنة
##زود
النمساوية
##وكاسل
تعليقات
تعذر
تشيلي
##هال
##صره
شحنة
بالمياه
تضخم
بالاد
وترسيخ
لأهم
بتحرير
التزم
##زنا
ضبطه
رفضا
نصح
وجماهير
السينمائى
فقلت
##غلاد
الافلام
المنفى
طلبوا
##ونسو
الأفغاني
ميلا
##خو
ترشحه
كده
واول
الجهادي
ستواجه
للواقع
##ناح
##رقم
##سفيلد
زا
وسيس
يقوده
ثور
التنس
تعج
عودتهم
فأين
بالمغرب
المنشورة
والرح
للقاهرة
الطين
مدتها
##زهر
بصنعاء
نحب
وتعتمد
وذاك
والمحلية
والتسجيل
ورياض
يؤخذ
بالخدمات
فاشلة
تسكن
##يلت
استغرق
الأميركيون
تنظيمها
سيطرتها
وجهود
لمستوى
والباحثين
ووقعت
والنتائج
وتطالب
الداخلى
العبيدي
لأني
القيد
وتكوين
لاشك
وامام
بنشاط
يقيمون
ادخل
ملعقة
محقق
كلاما
روك
لمقر
سيرج
مسيرتها
##كليزية
##86
والتأمين
تتضح
##وفاكيا
اللند
نعد
اسفر
##جوابات
قصارى
حلمي
واند
حقوقية
الداعم
بالدين
وخبراء
تنطوي
لرصد
شفافية
وباتت
##عيته
حملتها
تدعي
المناقصات
##يوين
##ائنة
##ونز
الفقى
##دعى
الاشتباك
متزوج
والامت
##واتهم
أسنان
الكيميائي
وفوق
دومينيك
وأهل
العطلة
كج
سامر
نبأ
لشرح
وجدة
وأقل
تتنا
الدراسى
النشرة
البارزين
تبنت
اظهرت
وناصر
##عاونة
عزاء
##راعا
وسفير
نظرت
وافت
الخاضعة
أموالهم
صفحته
نجار
سيول
ألماني
استقدام
وإنا
وبفضل
والحن
إجبار
الإجرامية
بإش
معدنية
الجلدية
غوانتانامو
والبريط
الرمل
الأعلام
##ساعة
بالخروج
##وشة
الاقامة
بطرد
فكري
قسط
##وخي
المقاصة
وتقرر
360
أغراض
مزودة
مستجدات
بالجم
مهدد
التجريبية
بيانه
وعندها
مسلحا
وللا
والسفير
والخبرة
تزامن
ماني
ودعمه
المقهى
##وصف
لاج
اعقاب
المبدئية
بشتى
امتصاص
ماس
الحن
الطرد
أوس
لسوء
##قيفية
حوارات
##قرب
ومعدات
##وفسكي
وصورة
مقتنع
لشغل
##ساهمين
الجسدية
بالسلام
للجزيرة
عمن
بشن
اعتماده
الغطاء
الاسعاف
هويت
أسهل
الهوى
تولد
المؤلفة
يتطرق
إنبى
عادوا
انتم
##درد
امراض
مفوضية
##صابته
صبر
منشورات
ثروات
للجائزة
والأر
ميانمار
يستعرض
ترسم
العبء
الستينات
استقلالية
والجهد
للعدالة
تشريعات
آلت
عملوا
المدخ
منعا
واستقراره
تتردد
يفرق
بالإنجليزية
متصدر
##ونالد
225
جزين
##فوذ
تزامنا
##ندور
اقترحت
وسرع
أرقى
الأعياد
تنسى
وتركيب
يضيع
٠٧
أروقة
عيب
بمنا
الباجي
بورد
المتكرر
##وائها
والمستشفيات
تحطيم
ليؤكد
باز
وأداء
مبارات
للشعر
لمشكلة
مفيدا
##ماعيلي
وعلوم
للدعوة
بلغاريا
ومعا
ثلاثي
تعهدت
الفاسدة
الأما
بالحديث
واصحاب
صاروخية
مزاولة
المجني
المقل
المنض
بالدول
كونج
الإخوة
ضاهر
حلي
اخطاء
##قلبات
أسبوعا
الشيشان
العائدة
سوليدير
الغردقة
المستقيل
ثمنها
صفا
يستجيب
لسحب
أخطأ
المحاكمات
الربيعة
بالوضع
بالاهتمام
محكوم
فبد
##اءة
للتراث
التالى
التعيينات
خلط
سلبيات
الأحاديث
النحل
بشبكة
سكة
صديقي
مصابة
مستبعد
اللمسات
سرك
أوراسكوم
مؤسسي
السقف
هكتار
الينا
وحظ
موسع
امانة
وزميل
كفيلة
بالذكرى
اهمها
يشكو
للطائرات
القبطية
المنبثقة
لمباحث
القراصنة
الشطي
##وابع
بضائع
الالتزامات
بالفيوم
كارول
الإشارات
##ديولا
ليالي
ارتكبها
فالش
الايرانيين
العواصم
المشجعين
رقيب
##شيه
##ضيات
ذراع
والنتيجة
يتبين
وخاض
لموضوع
يجبر
##خراجه
بمفرده
حصولها
استئصال
غلاء
الايرادات
جاذبية
الساق
##يزان
مغربي
##جدا
إدارى
ويبحث
نصائح
للشغل
سمعنا
##راجعت
للأمة
هزاع
طريقهم
للابت
الصفدي
تسلمت
إلحا
للأجور
موك
بشعب
ضل
لتكريم
بالدي
التحذير
أكده
منطقية
نشبت
##تيوب
بورتو
الافغانية
المستعملة
##تمرير
شرعا
المعاشات
شوال
برؤية
قدراتها
محال
ملحوظة
وتذكر
##امتة
##يروني
##وكيا
يجدد
لتصوير
مصابين
المسر
وأثبت
بكفاءة
جوهرية
الغنى
بشهر
الاوقاف
وظلت
اليدين
##ستانت
للفق
العذراء
محتر
قواتنا
تتحكم
الورش
الروحي
الجمالية
بساطة
الشايع
شج
عجل
المكافآت
##كورة
بلورة
سبقه
يبتعد
أدبية
رابين
بفض
##كاتير
##نوات
للاع
إنشا
بمحا
المنزلي
##راسل
ليقول
للتسجيل
الأوكراني
والعملية
ارتياحه
وتنا
لتقرير
بالإجماع
ويتميز
كدولة
النثر
اوت
تدم
والتربوية
العالميين
مشارف
نائبة
الحلو
أدائها
المحتجون
انترنا
للحضور
مدع
نعاني
اعتزاز
بالعم
بأغلبية
لافتتاح
معبد
معني
والحضور
أبراج
لصفوف
وبيت
طقس
هيد
##وعود
يشرح
ينمو
مقاتلين
وعادت
صوم
لوب
بثلاثية
المير
التحصيل
٠٢
ستف
رفقة
قصوى
بتدريب
لخطة
لنيابات
ثوان
وقدرة
للأمير
1947
عابد
##ؤيد
تلقاها
الذكريات
##ستردام
##ضايقات
بالصد
##روء
للقوى
الإحصاءات
بائ
##فيدين
أخلاقية
##زبك
165
سائلا
الفيتو
##كينا
لحسم
##شادية
الفقرات
أشغال
برمتها
لبيان
يستمع
المغار
لوبي
سيلتقي
##ضفاء
ترمي
ومستشفى
الرسام
الملازم
متفائل
للعمليات
معيلات
والسفر
بالسلطة
سنه
رعايته
لقبول
حضاري
البدوى
##طاني
الازمات
اجر
الاوساط
والأجنبية
الكرملين
بالصف
الأقمار
غداء
اساسيا
270
والتطورات
الديب
مكتوبة
##لهة
زلت
جماهيرية
الألقاب
للزراعة
والتطرف
استيا
1957
بتفعيل
لنتائج
القف
ورغبة
تبرير
الذرة
الاستيطانية
نام
لمرض
##يدت
لحما
يختتم
والبا
الترميم
الزلفي
##طير
ويؤدي
ارجاء
سلع
الصعد
ردد
##والده
وطبعا
وصدق
الإحت
بالمناطق
بكفر
حلولا
تغذية
الكرواتي
##جسد
##ذكاء
مطاردة
للتمويل
القلم
سياحة
بالقط
الجبلاية
الجونة
تتب
أعتبر
الاستسلام
السلوكيات
أمد
المسبقة
بإع
باسيل
الحضرية
##سبير
ملوك
اشد
العزلة
الكسندر
يستوعب
##نوعة
##خيلة
صيغ
الوصف
##بند
بتسجيله
##ناوي
نفطية
الرصيف
حمادى
والموت
اليقين
يحتاجه
والأول
التصور
مضاد
الحاجات
لتجديد
الإنكليزي
للبقاء
لقرارات
##بتون
حسنة
##ضخم
الشاعرة
ينطوي
##ابداع
واقامة
وشرق
بالأساس
شتوت
يؤكدون
تخطى
##ناقات
تخلص
للدرجة
الجيوش
##ضد
كوني
##وترة
الناشطة
تتألف
للاكتتاب
##اتو
مشيط
والثقة
امله
الدقيقتين
شعيب
أثرية
ستيفان
##ريحا
بالقلق
البرونزية
الاعتمادات
الصقور
بالعلم
##مائر
لغرض
ليشمل
التدهور
والسلم
للحل
##هورا
وتتمثل
الاستيعابية
##ختر
##رابه
للفرد
واضطر
نؤمن
والالت
الامتناع
##زلج
أجراه
المضم
بنظ
للاهتمام
نتم
يساوي
اوف
سون
الحام
استنكر
ممثلون
المؤسسي
وفرص
روبير
والجمعية
حاسم
راكب
والتعد
واستنكر
باللون
بدايته
رأسا
استضافت
يقم
طالبي
لساعات
##غطي
بالبشر
زغرتا
دوار
لإلغاء
حجاب
تشن
يرحمه
انقرة
للأسهم
ويتناول
مصممة
واقتصاديا
الشركتين
خفيف
والثانى
تهميش
الكاميرات
بليون
##ساءلة
تغادر
حضرها
التسمية
##سيحيين
##كيلو
##بابا
تلعبه
##اعتها
المتراكمة
لأسعار
الاهم
##كيز
الرئيسيين
دموية
للفيلم
والمعايير
##رحمن
بالطاقة
غسيل
الضباب
التلفزة
الطباعة
ودوليا
##وبيل
##لفين
بأسيوط
فقدوا
والمسيحيين
##th
الشمل
##66
المكتوبة
المراهقين
جيان
لابن
سينمائي
لايت
##اجات
دوامة
##جاة
##هرت
الأسوأ
نتعامل
الضريبي
نقلته
صفي
##زياء
فوك
يرضى
لأطفال
دونما
الإدمان
الاوكر
الفيروسات
٠١
##زازي
لانهم
الصانع
بحب
##ميتها
البوتاجاز
والمطاعم
وأقيم
ليقوم
البدني
عيوب
المنتمين
للاستهلاك
كوبر
وزارية
المندوب
أوضاعهم
العدوانية
جنوبا
احدهما
المساهمات
صنعت
لاعتماد
مؤلفة
تدار
القنصل
وجعلها
ومحد
يمضي
تأت
الإياب
الألبان
بإنتاج
تأييده
##رخين
بإقالة
المزروعي
تحدثنا
مرحبا
الاختصاصات
بكالوريوس
##ab
##يازة
ذكية
يسري
وتسب
حقيقى
الاصل
##هدة
علبة
يلغي
الفايز
##ذكير
فلان
بالمدارس
الكلب
أمثلة
عقدين
##غتربين
البني
تساوي
اوبك
وحددت
تأكيده
1600
##طاحت
الأندلس
نهايته
والشوارع
لمص
بسقوط
متطرفة
الشرفاء
تسريب
السنوى
يقتضي
المترو
تحتية
الزميلة
يخفف
للانتقال
الهجمة
بسوريا
كغير
للوقاية
العاجلة
بحثت
تيارات
يندرج
كجم
مكالمة
البدائل
اثارة
ادراج
ومصادر
ورفاقه
باستاد
المختبر
##مائها
الأمامية
وبالذات
دعاوى
أولمبياد
دماغ
أوسلو
##غله
اثبات
##مها
إثيوبيا
مهاجر
وشعبها
ستاد
متحدثا
جامعي
جرعة
بريده
والور
##هبوط
مغامرة
بترول
##نائنا
المعلمة
ومحاربة
##طيه
المتعاقبة
جمعه
بتخفيض
لتمثيل
الاسراع
موريس
النبى
الجغرافيا
الاستعمارية
##قالي
واعتقال
الصحافية
يخفى
والرياضية
##يوبيا
وقرى
##طيعة
الفاشلة
ولان
لإسقاط
الكتيبة
للأسرة
والمنافسة
ارتبط
##طيور
عابرة
بالسماح
320
##طفا
##ist
بالقدس
وتعت
والمقرر
##ريته
برمته
مفه
سدير
كوست
الثلج
آبل
تركه
اختفت
سلاحا
تلاميذ
##يفون
والتفكير
كربلاء
ويطلب
تقودها
الفدرالية
امثال
يتقبل
لبس
المقاتلة
إخفاء
وتصبح
راجعون
الارهابي
فالف
وراح
مناسك
الكتات
عقبات
تتعارض
##طفات
للاحتلال
اون
السياحى
وسيم
توفى
الدخيل
اقامته
تواجدها
##ركوزن
##جله
##طلت
لليهود
راكبا
##زاحة
تقتضي
وبذل
##طرأ
فرعون
فراج
##ap
والاعمار
طرفي
##تبع
بكار
يخصص
ثقل
حالها
أفراح
##ئوي
الآلة
ضابطا
والاردن
كاسترو
حسنا
برتبة
أدعو
كلاهما
واجتماعيا
المخلصين
للمعرض
التنبؤ
غالية
تقصير
الاركان
وصعد
قيس
معلمة
السكوت
التعميم
بواسع
##سينغ
شعبيا
بالعام
شهيدا
والمهني
إجماع
##باغ
للقوانين
المتهمون
##ذكرات
مقبولا
عفي
والظ
حبوب
محاكمته
القيوين
الهيكلة
وحياة
إثرها
##ققة
سعرها
بأيدي
النصراوي
##ريفي
ومراجعة
المختبرات
الايمان
وتقبل
##باريس
عبروا
حجمه
ومات
مشروعه
متواضعة
المبيدات
خلاصة
وممثلين
دويت
بتحسين
إساءة
مديريات
مصدرها
وأمراض
شاليط
قرص
ترقية
قانا
بالحي
راضي
شئ
للفن
المنشودة
بالغرفة
وشقيقه
لفيلم
##ريها
تجنيد
وكأنهم
ستم
بمواقف
اثبتت
to
##جدية
ايفان
بعدا
بويز
روضة
سراج
ونجحت
نأخذ
أؤكد
لحمل
وبها
الخان
دبلوما
##غف
ممثلى
أبيه
فنى
تصدق
تستثمر
رأسية
المسط
الطعون
متساوية
خبرا
إحسان
الفرقاء
النمساوي
وحينما
البان
##عودي
باطل
الكؤوس
الحاويات
إنتاجه
يوتيوب
القبط
وصيف
##فاوة
مراقبون
وحاز
جاهدة
##وطان
شان
##ربوا
والتفاعل
استراحة
مناورات
يتألف
ثوار
بالموضوع
##جيء
تحيات
الحصيلة
المنشأ
ستجرى
المضاد
للمدرسة
##ورام
السيئ
وعددها
بعمق
رشاد
##شافة
نترك
جانبهم
يقفون
التاجر
العث
البحرى
لايمكن
يرجح
بتراجع
انتعاش
المتلقي
لحظ
بطن
تحفيظ
لتاريخ
تشييع
الممل
مسارها
حجازي
التروي
واستغرب
الصاوى
بأزمة
ستنطلق
النسبي
وبخصوص
الجمهورى
حوافز
بابت
التوس
فواتير
لكتاب
نيوزيلندا
المثالي
نقولا
وخار
بتصميم
باق
بواجب
##جرا
تعين
##فسور
يعجب
سميرة
لمساندة
جعلته
وأسفر
أطلقتها
##فتى
ويطلق
أسفه
ومحيط
خذ
حافزا
مصح
النجاة
بإيقاف
حظا
جميلا
مروة
وسيارات
وجبل
##حاز
تحتوى
الحاصلين
تبرعات
وأسلوب
للعيش
الدرب
تنازلات
فرنسوا
بمسؤول
أقوم
اساسا
منطل
##كرس
##ابعاد
والصورة
ربنا
المعدية
الشامي
عقدته
##سلحين
وإمكانية
عدت
العراقيون
سمر
خارجيا
بالجبيل
مانديلا
الشوك
يسع
يرضي
الإعت
محاصرة
بالطائف
الوضوح
طاقتها
شرعت
دمار
الرهان
نطلب
هجم
الكفاح
يبث
والارشاد
زينة
النوبة
قصيد
وتحولت
بيشة
مبتكرة
الإعمار
والغريب
مثلت
##جاذبات
الأذ
شبهة
أساسها
ممل
النخ
##وزعت
المستقبلي
##الوني
كثيفة
دافعا
##اميكية
الشيوع
المعتقد
إميل
وتحويلها
الاسلوب
وبع
الجزئية
السوريون
مزاد
ولست
بالقضية
وتعريف
السنغال
تعاليم
تركيبة
##كاذيب
ريس
القائل
قلوبهم
القصيبي
لائ
الإمكان
ننت
يرج
اقليمية
ومعارض
##فاتر
الماجد
فتوى
##كوادور
أسمع
الدعاء
المؤبد
والبرازيل
##88
حفظهم
زوال
##الدين
للتأكيد
يحارب
سفيان
يهت
تقلل
127
جبريل
لتصحيح
كفة
والصف
##قبها
بعلاقات
الوضعية
حلو
آبار
بصلة
الخد
كادر
الإرش
##لتون
قتلا
##ناقضة
دراج
الخضوع
لأهل
نسيج
مقررة
##وزى
##يبان
بمراقبة
وظهور
ثراه
المفاصل
##وراس
جمعها
##زرتي
لثلاث
وآلية
التطويرية
انتشال
##مز
التسويقية
لمسيرة
الحماس
المبالغة
ودا
السامة
الاختراع
النصائح
ميداليات
بقدرات
بأخذ
والدستور
الواعدة
عربات
##فط
##كتها
##بتعد
سرحان
السجين
العاملات
معتز
إيد
الصينيين
وعرضت
الدو
##خوض
البرمجيات
العدلي
المتضمن
الوحشية
والتوسع
نهايتها
الأنابيب
انجز
تصاريح
ومياه
ندا
اوساط
بتفجير
##كاو
الصخور
##برج
الفائقة
طولها
موسوعة
المرق
تجربتها
التدخلات
متكاف
وداخل
بالبط
##ov
اختيارها
نجحوا
الشرايين
البرب
احب
شجاعة
بمبدأ
الرواد
للسماح
عربى
الموتى
واعدة
للتوعية
تدر
تشاد
114
##طلان
البدون
محدث
أفهم
طبيبا
وتأسيس
الملقب
أبنائنا
واذ
شالكه
وايجاد
المنصف
قبلت
الباحثة
تسليمها
جنس
التفاح
الضحك
بالوطن
الخادمة
مرعي
التلفاز
للجامعات
فصيل
##لتها
ملء
وأثار
الزيات
لمرضى
اشترى
الأرصاد
هاجمت
يتقاض
المقومات
##ناوى
تقوده
غبار
لايجاد
خلفها
النظيفة
المظاهر
ويوفر
يجيد
والهندسة
ناض
##بهت
مصفاة
فقيه
منطقتنا
المائي
##اذا
بمصالح
المنحة
وتلبية
ويريد
محيي
والثانوية
المغامرة
شفا
محمول
ورج
سوم
##ورهم
ومعايير
كفاء
عاجزة
ومجتمع
الملحو
للمرور
##ماد
والأجانب
٢٠١٥
توحي
##تهرت
جاي
فولف
كريستوفر
خلاص
لكبار
وتضع
اعمالها
آثارها
إيلي
بالسيارة
والغربية
ضغوطا
الإغلاق
وتدعو
للمصريين
مقابلات
زيمباب
فاننا
كذا
تخلق
البدلاء
أصبحنا
##ينتين
اللسان
استراتيجيا
الإمبراطور
والشمال
##جيم
سيتى
الاقتصادات
ذبح
لانتاج
والامارات
ضريح
السلفى
ثلثي
كذب
المقدرة
وسف
قادت
مخصصات
يتوقعون
سراي
ريمون
##اذب
الغزل
وتخرج
المؤيدة
للاطمئنان
الدعاوى
أرادوا
##صقة
لاحد
شريكة
##ياطة
التحاليل
بالجامعات
مشاريعها
الغوا
##ونيسكو
##فضة
إيمانا
##يواني
الجوى
سيشكل
ترتب
نحقق
المتش
كميل
##وردين
أنان
الحكومى
قضاها
وضمت
عقيدة
للبناء
الحصان
خديجة
منصات
فرناندو
للإشراف
##ضلة
وخرجت
##دمجة
الأخطار
فنانين
فوكس
برسم
الجاسر
وخبر
الفريد
وتغير
خاضعة
والقبض
والحذر
الزحام
حزم
صناعي
لشب
العصابة
للحدود
تين
اظهر
العينات
هواة
شوب
سعيدا
شبيهة
##حها
باطلاق
للصف
وتوجد
يولي
بضمان
للمنا
ميغا
بالسرطان
سيناقش
بإي
المقاصد
الحسينى
##ادتين
برونزية
باعتقال
أحرونوت
البيط
المنية
القاضية
##ورسعيد
جمل
الاسنان
الفضائي
والشعوب
الحلال
عمدا
##مكانيات
بداخله
يلبي
البدو
يجدوا
ومعرض
مشادة
العك
بلاغات
العو
العيس
منافسيه
ابيب
العنيف
استجاب
أكان
دولته
جوف
بالبيئة
ودعوة
ومصادرة
بواجبات
لطب
##خوف
والعيش
ومرافق
##وارها
قناعات
ميامي
اخذت
التصديق
والثلاث
دعمهم
مقاتلة
باش
ناشطون
والمهنية
##لاجة
متقاعد
أنشطتها
##يفات
تكرم
يشهده
سوني
والتمويل
ويكفي
عرفة
حرمة
الشريفة
الضوئية
لبلاد
لبنانيين
تنصيب
واللافت
##خدير
للعرض
وانشاء
وينبغي
##ub
تخسر
جور
وألم
تعاقب
##هائي
ويحتل
جدو
تفتقد
للمشاركين
سببها
ودخلت
موظفى
رؤيتها
والبنية
نيود
الأطل
يحتذى
باني
امامه
فالس
تجعله
الثغرات
يراد
حواس
والقومية
لود
والتجهيزات
والإشراف
الأصعدة
فف
لإقرار
##ركاب
ثمينة
اختفى
الاختلافات
باستعمال
بذات
وسرعان
الفاكهة
وقدر
ينظرون
ستجد
منتظم
أزياء
متسا
متلازمة
الصبي
ابتعد
كاذبة
##كول
والواجبات
##ائهما
المنار
المعرفية
والعقل
طمأن
لتناول
متأكد
مخابرات
تساءل
للقوة
التأثيرات
معص
فعلته
المفاجئة
##وننا
الموهبة
للأول
بألمانيا
عينها
للطالب
##يجي
الأجنبى
تلحق
الدوادمي
ينسحب
مفع
قناع
##قدين
وهبي
##واقعية
##خرق
##حيي
العشوائي
محاولته
مارتين
لتوقيع
##سوارات
تجمد
اصطدمت
كأفضل
تصاعدت
غرس
وقلب
والرغبة
جماع
شوي
لأزمة
لفكرة
عبادة
دينه
المتابعين
ساره
الريادة
اوز
صوتها
مفاعل
لبا
العرقية
للحرية
وإجراءات
لاكتشاف
1953
امارة
113
صبحى
سجناء
نابولي
آلات
لبيب
متوازنة
وإغلاق
التقشف
##نعا
الريس
حيازة
الشيخوخة
مطارات
تفشي
تحذيرات
انتهاكا
السطحية
ديانا
يتحكم
واحة
يتماشى
الجبالي
يكره
##وديا
##كاما
رويتر
اخوان
ليرتفع
وستة
تكل
تشاهد
ورؤية
##اهي
جمهوره
لاحتواء
بالآخر
ومعت
للتنفيذ
الصافي
الرقيب
الجمود
موسمين
الميس
##لاله
والتشغيل
##ec
##راكش
والأرض
جولي
قارئ
##قدان
##بيته
##ونال
المتدربين
تيري
أموالا
أعود
الزفاف
للاب
المكسيكي
يسدد
التخزين
الاعدام
دعاية
للمعلمين
##قلل
والشراء
أسهمت
الغارة
##شوة
الدرك
استكشاف
والأسواق
وكرر
رعاه
وأثنى
للشرق
يشيد
##ولتها
لانهاء
مملوكة
يحرز
حاسما
الزائرين
##ناقص
ومخت
تعاطف
باسمها
##فيذه
لقوا
ديالى
سارع
##دان
التليفزيونية
الصناعى
الخصائص
الديانات
##ارم
محاسب
علوي
عتيق
الشعي
1433
المبتعث
والتقنيات
##اردينال
##نوا
ويصف
تسميته
ران
سجين
إلكتروني
فوت
##سابقين
ناطق
##ائزين
وتوقعت
وأنصار
وإنجاز
لأنك
الاعتدال
##زايدا
التأشيرات
##بلي
الانتر
داء
خيانة
##سطو
بمه
دموع
كهربائي
طبيعى
##يناس
الكعبي
وجمهورية
والإعلامية
التحالفات
الحمدان
لقتل
اعلم
إحصاء
##غارت
##زالتها
##وكرانيا
نديم
المنافسين
للموسيقى
جدارة
مستقلا
كنتم
فالي
تحتمل
النقود
بالحرية
ايرادات
والني
وسقوط
ويندوز
الذكي
الرمز
##واطؤ
للطالبات
##لفل
وحوار
يأمر
جماهيري
تتبعها
وهاجم
210
ومدة
أرضنا
والاستثمارية
والاستمرار
شركته
شال
الناب
ومسرح
الخلاص
قاص
كازاخستان
##ندين
##رويت
الطبط
العاطفية
زام
##واته
للمزيد
أثرا
تخلي
المشهورة
والعالمي
التعليقات
ممتلكات
وحرم
باستغلال
ناشط
السواء
مستحيل
شطب
##حترم
الطرابلسي
نظيفين
العف
أنكر
بالصح
يونغ
تلقوا
والمرت
أسست
##ثري
أشر
باتفاق
وبالأخص
##دور
والسر
مطلوبا
يكتمل
الوجد
بحوزة
والسلوان
بجراح
الصافية
بالتوقيت
الاعتقالات
حركته
وهنأ
وفقدان
يرب
##صادرات
والقاهرة
العريس
والحو
بكت
والموسيقى
سيساهم
النض
اوك
غري
##بتها
##ظيفة
##وءة
الأنصاري
حيوان
زائ
يعول
الطاز
##رحل
تفريغ
الراقي
##فئة
##قطيع
جها
ليش
الفضيلة
تلزم
النسيان
تفتتح
##نتر
للأشخاص
جرمان
تداولها
ينظمه
وعاش
الملائم
الضيق
صلبة
أوجد
إسرائيلى
صائب
والأمم
المسيل
ومند
والمج
تتويج
المقبول
سلوكيات
والخبراء
ماهي
مسافر
##دها
شوطا
التفصيل
البدي
الخوض
الخيانة
للرجل
والقر
##سرين
1955
الاماراتية
##ضوا
فرانسيسكو
الغا
ماضية
ينتخب
البائع
نيوكاسل
والمطلوب
##اطبة
البنزرتي
باهظة
واخذ
اجنبية
وهولندا
حولت
بالاقتصاد
حافز
بنوع
بشهادة
قسما
المشرفين
مرتكب
##الع
الديار
وسع
بسيطا
بأعلى
وتخفيض
##ريث
ادريس
دبابات
هجومية
##رتفع
إعفاء
117
التزامه
تستكمل
الأوسع
يتطور
ونقول
الفدرالي
##زيئات
استغلالها
غرامات
##بيلي
زوجتي
مسرحي
شيخة
##طرون
المؤسف
وتخصيص
المشهور
فريضة
جلالة
##اربه
مراح
الاصلي
ونن
كولن
##راوات
عليهن
درسا
التنفيذيين
##رابعة
124
المتبقي
التذكير
سهام
##غيت
الماس
المرونة
البندقية
وعلاء
ايمن
##قوال
الإحصاء
موسعة
الحزام
صحيف
السباقات
بالنتيجة
خلود
وزارته
عائدا
##ard
مرجعا
معدة
أنصاره
فارغة
##بلات
ألفين
درست
المجاور
الأسترالي
ليفركوزن
نطا
وعمال
وتوج
عبدربه
عاجلا
ناتجة
أخص
##هيدي
وتنسيق
بالحبس
##وزين
المفعول
الاستاد
بدوي
والفتيات
معاش
والتحليل
نصير
##يدالية
والحلول
بحصول
بمهمة
ارتفاعها
جاهدا
سوريين
للحرس
##ركزية
تركها
ويستطيع
مغلقا
بتط
الاقتراض
260
قراراته
بيكهام
##طفة
البلاستيكية
بخدمات
الاحكام
ومغ
##عاها
تتعاون
للضمان
براء
القطان
وغادر
بملي
بحمد
##يتة
ساك
للاطفال
المقبرة
الديمقراطيين
ماز
توقيعه
بتأجيل
نبي
##67
علاجها
##ضحية
##ريجي
والأوقاف
للمرشحين
تسليمه
اهتمت
##يفيا
النظامي
وعليها
اللصوص
مكانته
فارت
غاي
زى
عظام
انعكاس
المذنب
الملاحظ
الكروى
موسيقي
الكورنيش
##ومال
##طائه
شاحنات
وعبرت
مطالبات
الأمراء
سيعلن
يحتم
روجيه
للفرق
القاري
بمقاطعة
لصالحه
الموجودات
سيبحث
يحاسب
ضفاف
المروري
##بتنا
النسخ
والاقليمية
بالشارقة
والآداب
للعلم
يتعرف
كالأ
شيرين
##حوم
تجميل
سيواصل
##وائيات
وافتتح
جائز
والهر
##زمين
تسجيله
شوا
للمص
بجهاز
سائقي
خوجة
مشاة
الترحيب
المراهقة
بتأييد
المكثف
تحسم
خرطوش
##لاحين
بصفتها
اجزاء
ويحصل
##ترين
التحلي
اللفظ
وقبول
المثلى
والصحافة
اوقات
إنك
المطلة
والنهوض
البروتوكول
والقيادة
أحس
الأسطول
الجنادرية
خلت
يختص
النباتية
لقطع
بالكرة
والعلماء
فجرا
##64
بقعة
أقصد
اشتباك
المكافأة
كمست
وفرق
كلوب
عملاق
تناوله
متصلة
دراما
المفكرين
##LE
المارك
##واتية
اليونيس
عزة
السلمان
تواكب
اقتصاديات
##طاس
والعضو
يهرب
إشعال
ماكرون
##نجر
##كرير
ملحم
يطلقون
قانونى
هايد
وضعوا
آه
اتمام
الكامنة
##ie
المبنية
واعداد
المنطقي
المتعاقدين
امتياز
ينعم
العقارى
##راقا
##صادم
رحاب
التجن
المأكولات
القنفذة
##كتفي
المحترم
الترسانة
الربحية
وطموحات
وأنتم
وكلنا
يوصف
زواجه
وتساعد
##ترجم
لانشاء
الابطال
جزئي
كوشن
انان
ملحق
##سعاف
بكرى
##زيان
وثيق
##91
بعلم
بإسرائيل
كيب
هين
اسكتلندا
أقلية
##كرتا
السائحين
ميليشيات
رفعه
حصولهم
المدفعية
الجني
بالدائرة
يغلب
لتصنيع
سيدخل
لقيت
##نتهم
مركزه
الرخصة
مريضا
##جس
##زهات
عاديا
أغنيات
والتل
واليه
وترا
مكلفة
للمريض
محققة
المجهود
يعشق
المنتديات
يمني
منتخبا
مشابه
المرئية
مقديشو
شربل
خافي
مرتبطا
العصب
تتن
مقاتل
انجاح
وعربية
##وتن
كيد
أطياف
الصبيح
وأشرف
والبرازيلي
لحسن
وأميركا
لكسر
قادها
استفهام
المرفوعة
بدورهم
حلق
المساءلة
وضباط
بالجزائر
للطن
الباكر
ديز
الحوارات
يعتبره
اعتبرها
يقضى
نجع
للمسابقة
المنعقدة
يفتقر
##وبتر
والأحداث
بالمرحلة
للصليب
مسئولين
##ومو
برية
ميليشيا
##عيتها
أخيرة
##ماثل
جداول
الصيدلة
المظالم
مساحته
البائ
سيزيد
الاك
البادية
تنخفض
بالمثل
يتفقد
باستقلال
خلع
وعبدالعزيز
السائح
بنزين
تتوي
أثرها
استحسان
واجت
المستف
أتذكر
وإقرار
والمهارات
للسعودية
السعوديات
فتن
السعيدة
بالفترة
التفريط
تضيع
عواطف
مسلسلات
متعمد
لحادث
الحاسم
والتقني
واتهمت
يغلق
الفواكه
عشان
الثنائى
والمهم
تفاصيلها
لألعاب
قيامهم
متخصصين
تتصدر
ادارية
##شهاد
حمض
ومنتخب
وحاولت
آسيوية
سماح
##ine
بكتابة
نجاة
##فيهي
تدريبي
ويشهد
خيوط
تحرم
تتشكل
##ضرابات
##ماض
##ويرس
تفوز
اثنتين
بمعزل
الانتعاش
أغلبها
##بيروت
لتلقى
غربا
أعمالا
يلب
لوران
بإصلاح
بأربع
زملائي
المهنا
وصوت
لرابطة
أسقط
نطاقا
هيوست
##اميك
مطلوبة
##سوة
للجمعيات
للتضامن
##وافقت
مهتم
أميرة
شقراء
درهما
البراءة
موقفهم
مستقبله
مدرجة
مواجهته
والقدس
المشبوهة
سابقين
ليكونوا
##يخة
تخيل
يقوموا
باجراء
النقال
طلقة
رجالا
سانتوس
عفرين
مختلطين
فريقها
عنصرية
##وروغواي
لكثرة
وتقليل
النقالة
##وافع
وتراجعت
المدرس
##صبة
العزي
النموذجية
الباف
ميليس
##دادات
أبى
المستأ
المرفأ
مناقصة
سياسيين
والمعلمات
##اتباع
اسرع
والبدء
ويقود
بالوحدة
عضلات
##قيقتها
بوروسيا
بدأها
استثنائي
أذن
مذكرا
تاس
لمعا
الرازق
حيفا
##رفان
حواره
الاشياء
مجموعه
عيت
البيشي
بشأنه
استمعت
الجدي
الرهن
والجماعات
##62
الغدة
بخفض
نحترم
لوج
ومار
قدمنا
والبنات
آت
الشاحنة
##فاضلة
دفتر
قطاعي
بضرب
المتاحف
##ساقط
جواهر
والفنادق
حمودة
والترفيه
والتأثير
تصديق
والنظر
##تلئ
##عتاد
البكاء
بلجنة
فلوس
الظفرة
دراستهم
دينيا
##لتزم
للمسؤولين
مناقشتها
يكتسب
طلائع
امريكي
الأبنية
وعروض
ستصبح
وينص
وتزيد
الوادى
ألكسندر
كرس
السطور
والدواء
##حيحيل
عرقين
العينة
البلدات
التضحية
المتداول
المفيد
الطبطبائي
##فيلي
##سنى
محدودا
ويفترض
فيكتوريا
والتعريف
الاجازة
والتفاهم
تنظيمية
ومديري
التوصية
طبيا
وزيارة
مبني
بالعملية
فرقا
واستبعد
نيكولاس
صلاحي
رأيها
تاركا
وازدهار
هياكل
الإحصائيات
بمنصب
بالعين
##55
الأميري
تبن
تلميذ
نزيهة
واحتياجات
##قارات
سمك
مروري
##عاده
##ومني
اليق
التجول
احتراما
الفول
المواشي
##روجيت
بسعة
سيارتين
وخير
صاروخا
##ألف
الهنود
القاتلة
للأحداث
صبحي
تسهل
تصدرها
الميداليات
للموارد
##فتهم
الحافظ
سيدى
الألفية
البرق
مثم
حذف
متري
والجودة
لشبونة
##نافسات
كفالة
للحملة
رينو
##باطات
مقاليد
طرأ
المفاجآت
الموظفون
معلقا
صوره
البالغين
والوسائل
بالقرية
وكثرة
معرك
بتصريحات
مفتش
وترب
وجرت
الشاط
بكتاب
للبط
لتكوين
المسارات
الانص
##لقين
وبصورة
تحملها
للذين
##خبز
الناديين
Ch
##اير
عبدالج
الزيد
الفتى
آلان
للتنسيق
بمشيئة
للدي
المتسبب
وابل
الرقي
هونج
يحيي
ترسيم
اجتماعهم
الاسيوية
للخطوط
الوعى
أصناف
##تيارية
تفرق
المحترفة
ودرا
لجأت
فيتم
إيجابا
٠٨
العرس
زارت
وألقت
بالكشف
للمعاقين
الآخرة
يستحقون
إلهام
رعى
والرأي
مالم
النح
وباء
الباط
##جمهر
خيم
شقق
##امير
الخاطئ
##كوفونية
الشاقة
بالمخالفة
سهرة
وتجار
##كرام
المستبعد
المزمن
رفس
الأذن
اقتحمت
افلام
##رازي
ابنتي
أرضها
بالمزيد
رقعة
شادي
تباين
سددها
المظهر
البلي
علنية
##غطى
إقصاء
بوزير
السعيدي
والزمالك
الحقيبة
والإخوان
للحقوق
تفك
تجاوزها
إنجازا
وشعر
أجساد
للمنتجات
وجزء
الضبع
ندخل
تمثله
##ئب
##سرة
تعيشه
للاقت
نصا
بالإنابة
كط
والجمال
واكتفى
البيولوجية
عكاشة
وشبه
##اجى
باتوا
##ذيرات
ستح
##زله
والانتماء
##باش
شافيز
غمار
للسيد
بإمكانه
المعض
مصدا
ضررا
حريص
1946
كنف
أوسط
##هاجرين
أسما
##حصين
والتصدي
والخدم
بالمعلومات
وشف
المعمل
يحوي
سيصدر
جهل
لبلوغ
أنطوان
فشي
##يغو
##يفيد
متجهة
رأيهم
إلكترونيا
الخفجي
أندي
غنائية
ومعلومات
بحكومة
وقدرته
استفادت
ضا
نتذكر
الليبرالي
المركزين
البنكية
طلاق
يكبر
بالبقاء
ولنا
بخطوات
##مسا
ماض
أسير
دعونا
ونوعية
أخضر
الإسرائيليون
خصمه
باير
##قائه
##غيلي
صورتها
بأخرى
بالعنف
سركيس
بالمعهد
التحر
ظهره
وكسر
##ماسي
التخصيص
##خام
##لافة
يحفظه
##جرامي
معاقل
الغلاء
قيادية
ونظيره
وممت
##فصال
بتناول
السرطانية
##كندرى
تطبيقا
الاحتكار
العائلي
الصدق
اختصاصات
تتزايد
والسياسات
سيرا
الفرنسيون
استدعت
##زايدات
الطفرة
قضائى
الأولمبياد
حيوانات
280
المسال
يحكي
##واجهته
تموت
الملحن
ومحطات
##سيقار
يصوت
##منيوم
##تلاف
للتاريخ
الحالتين
مفردات
##سنين
##جبة
تذليل
وأطلقت
##اريت
متظاهرين
للقلق
النقيض
##علمة
احلام
التكنولوجي
##83
الرطوبة
والعمر
تختتم
كابتن
لأمير
وتسويق
ريع
يعامل
مهاجمه
حمادي
##ماسة
الأرثوذكسية
الكاردينال
الوزارى
مواطنة
دشتي
بقصف
الوهمية
مداهمة
ومشت
للتعاقد
لصنع
الدعاة
ويحتوي
والقرار
الفيحاء
زن
المسبق
##افير
##جنحة
احتاج
موقفنا
سياراتهم
اليميني
النعيرية
لأهداف
##برايت
والتنفيذية
الصاعدة
التعهد
مدربين
وشمل
##راحا
الاغتصاب
نزاهة
بديوان
مسر
##أنا
ذويهم
حتمية
##جدى
جسدها
جريد
ومنتج
والخطط
نصيحة
عززت
والادارية
الفرا
كينغ
##63
توحد
فيفري
الصحابة
بلدانهم
##قبه
دخولهم
سينا
##فيلد
لاعبوه
##امينات
ثوابت
سدة
وينتهي
والادارة
لاعبه
بإعطاء
##صص
##وتس
الرجلين
أضعف
اشترك
بحثية
ويدعم
##وريث
واعتقلت
فسخ
يطرأ
والوفاء
خطتها
لإخراج
جرجس
كالي
حيرة
للمال
علني
المناورة
يحملها
التكيف
مطروحة
جمعتهما
##كهة
امكانات
الحرمان
الفقير
واردة
دراية
##يزات
##جاهات
##ولاي
التزمت
##صرها
وبعده
وسياسيا
أفريقية
##انعة
##عاتها
خيارا
مسعى
والعكس
أعيش
بلعيد
وتملك
والأسرة
باعادة
الهومن
الالتفاف
ويلت
نزيه
١٠
كوال
مجز
المتعارف
ينشط
##خوة
بحفر
ستعود
ودبي
حميدة
المسئولون
العطار
إمبابة
##التي
##عاملون
راجع
الدرامي
ومحاسبة
هبطت
##بداية
مهارة
وكلمة
استشارية
فلول
ارتفاعات
غون
النجدة
ائتم
لمعرض
وترتفع
بالغربية
##اعته
بالتعامل
الدارسين
سماه
لإعطاء
التصاميم
بفكرة
حيوي
##درسون
براك
##زبية
بقى
كرت
ملياري
مميزات
الموسمية
والمجلات
سواه
والفواكه
نظامه
وطبقا
والخبر
ونبذ
الفاضل
##لكي
للاتصال
ذوى
##لتة
هددت
أطلع
ويقال
مغنية
##خبير
بقاع
وتفقد
اكسب
يهمه
بعام
المرشحون
##خبين
فنلندا
للضرب
##ادون
عتبة
السعدي
برلماني
يومه
للسيارة
عالما
##فيش
يلم
واللعب
##يثان
##اتهامه
أبوت
##جرون
يعودوا
وحصد
أخطار
شريفة
كغ
حاصبيا
##ياش
##صرون
تملأ
##61
مواقفها
الاستمتاع
ببرا
الجمركي
هارب
وتدعم
للاستمرار
أرت
الباس
افتراض
كموا
للالتحاق
الصعاب
جذري
الغراء
de
المؤدي
الديانة
والرم
بانكوك
اقتناء
احزاب
ركوب
الباق
بداعي
والبيانات
وثائقي
إناث
##لد
لاغتيال
ترتدي
العائدات
الحلبي
تحلي
الحياد
تكتشف
مكس
سيجد
##جورة
الارضية
وتعب
وتداول
فرعا
والمؤسسة
اقتربت
##oc
##اليك
##سارته
##est
جيوب
##قترب
تختص
حملها
نيب
المظاهرة
والسياحية
رئاسته
المعامل
احتراق
وتجري
يمتلكون
لتوليد
يرك
المحققين
ريج
##جوهرات
التشدد
للنقابة
مشتبه
ببا
هاون
يلفت
الإخراج
عصرية
معنوية
##تيهما
عبوات
المحللون
سلي
قميص
غلب
ومتم
اعطى
وشكلت
أفس
الفضيحة
وتحفيز
الارجح
زوايا
الهارب
الأعمار
الأعباء
الوجهة
اشتعال
وساطة
للحر
بأمور
تدخلت
رغبتهم
استحقاقات
الوقائي
ادراك
ودمشق
##حاح
إسهام
وارس
وتبدو
وجودة
تطويره
وسياسة
##فيع
بالمنيا
##وائب
##ثمانين
لوز
وأصدق
والعمرة
السعوديون
الإصلاحية
الولد
بالفساد
شرارة
الورم
للزواج
##ناهم
##يويا
##ويلات
لمشاكل
وأربعين
تقنين
إنجازه
اقسام
الإيجار
بتصريح
المقابر
أعلنوا
لخص
المصداقية
##ضاعفات
كود
مقرب
تجس
##كيليكس
الرماية
البولي
##وقه
تنفق
البلت
تأثيره
الترشيحات
سيأتي
يتأهل
الأسطورة
والال
للغرب
العينى
خيالية
محم
اساليب
بالبنك
##وقيف
السيسى
لمكان
المرفق
فند
1800
المعيار
##ستراد
وضوحا
##ابطين
ناجى
لتوضيح
وتهيئة
ديمقراطي
توضي
يهي
الغزال
والعميد
##منون
والجماهير
تعصف
البلاستيك
بالقضاء
والديه
ينفق
تحسب
هارت
تقني
بالسعودية
والمبادئ
لينت
يرشح
بالاستثمار
مبينة
تزور
للذهاب
طلقات
والإعلاميين
##قضي
وتساهم
اسمي
للصين
##قاذه
شون
بالطريق
ومصلحة
خططها
داعي
الهجري
والتجارب
لزي
##وركسترا
رت
القاع
الدف
##ابور
ستصل
لإرسال
مقداره
اشعر
عبدالواحد
بكسر
مفاوض
المرد
المحررين
رالي
##ستنا
وكلاهما
مخدر
آرائهم
الممتد
الكوميديا
بالجهة
والأخيرة
فشيئا
1920
هرمون
فيني
متباينة
استعمل
متوافرة
##نجاني
أفض
الهندسي
المجتمعي
تريكة
تسون
تصنف
بالجن
المتج
لهجمات
وفوج
ليسجل
ليفني
وأنهى
يحاكم
حرائق
##وقاز
أقباط
يتظاهر
القصد
الفيدرالي
##حاسبات
##زات
مارين
أرباحها
بالعكس
والبطالة
بالرب
وعاصم
السخرية
الدلتا
ختم
يتبعها
##ئد
وتغلب
##فاضل
جددت
وسار
الأرصفة
دمنهور
للدعم
بوقوع
راغب
##قادي
مكه
يلعبون
ويأتى
أميركيا
التجاوب
المترجم
٠٩
##غرافيا
بمدى
برنار
السكندرى
الاطفاء
وسبب
منظر
متض
##هدا
والطفل
المتاجر
لبلدية
والتدخل
والأمراض
بأعداد
وتكريم
##فرع
كالعادة
المفرطة
الشطرنج
المصطلحات
أضيف
##بداء
ودراسات
##وسطي
للمسا
مذهب
الأغنام
ودين
انفجارات
1423
##حاط
إعاقة
للإسكان
##رضية
متدنية
راشيا
الصحوة
الناشرين
وتسببت
مساند
طرأت
الجلاء
الغار
الهياكل
لانجاز
تكثر
الخادم
بمناطق
يصعد
بالوصول
##قايا
نيودلهي
بتزويد
الأوعية
##وسون
بارد
السلفي
باللجنة
نظامية
وحديث
فوزية
الضا
معيض
##نايا
ناجحا
المفقودة
الجبر
##وثات
الائتماني
البرى
دق
استمراره
والمرشح
لقضايا
اللغوي
وعائلته
وحجز
وفيصل
##ضرات
لمياه
المسافر
الاحتكاك
المبتكرة
##انز
بإضافة
والمأ
##قمع
٢٠١٤
رآ
راتبه
تضرر
ونوع
حقن
أفريل
الغاني
بطي
##رهابيين
ناري
المحظورة
أدا
حطين
والشعبية
ويقيم
وأنواع
فكرت
وبدر
روحه
أذربيجان
لغياب
أيه
خارجة
والحكمة
وبسؤال
الحامل
أدانت
وصنع
ومحاولات
##مط
##طاريات
الشعبة
يعا
أدار
##مرارية
وكار
الاكراد
والفرق
##وهر
حراك
فهما
اتسمت
نحمل
الشيش
الشاشات
نانسي
لمرشح
والكليات
ويشرف
احتراف
ملزم
للبعض
المندوبين
والزم
المستلزمات
وياسر
وتجعل
##برتو
وتخفيف
المعتصمون
المناقصة
الطموحات
والمشكلة
ايرلندا
##وسني
حالتها
الاستثناء
تسليح
نيته
وزوجها
لليمن
اختير
للصراع
##زوم
تصاميم
سخر
##زعات
بتغطية
كوبرى
للتسوق
والكشف
المضيفة
كفيل
المنبر
وزنها
شرحا
نظرهم
الالتفات
قطعا
رانيا
##قدامه
##شاركته
كبديل
للمفاوضات
التنسي
والتصميم
مصطفي
اختيارهم
##قدمه
تسلمه
استولى
بيو
تساقط
أغلبهم
مقررات
ماركو
تغريد
##ورنال
الاحتمال
التوجيهات
السيل
عقاري
المناخي
السموم
العدواني
وقضية
بوحدة
وتزايد
المشورة
يغني
وأردف
##بيتي
وكرة
الفضلي
المخصصات
وعرضها
المذاهب
##يطاني
احتشد
البيروقراطية
##هلكة
بيتي
بحوزتهم
بالتصويت
الالتهاب
##ويضا
##خدما
المختارة
وطر
بغياب
القاص
الأي
فرنك
المرتدة
بذور
والدكتورة
والقطاعات
منبر
##لافه
الطبعة
لفهم
وانطلاقا
تتنافس
سطام
للنادى
يرام
##طام
مقدارها
عداء
مراج
Re
طليعة
سيزور
هيت
ترحب
نشطة
##طاعة
الكوبي
##سيكو
عمادة
مختلفين
مساهمات
##وبال
انتحارية
نراها
##لالا
ونع
أفكاره
هاآرتس
يعتذر
وأحرز
##قبع
للتخفيف
رفحاء
##حتاجين
##جيلي
يحبون
جغرافيا
العليم
##جما
الإيقاف
رسالتها
ويناقش
الصينى
المهمات
قفزة
يكرر
الإحباط
وآخرها
الإنجيل
ويخرج
يعوض
التطعيم
شنغ
قدرتهم
الخرائط
مؤيدي
بثها
إيل
يتخل
انفر
المسافات
لعلم
للادارة
حاسب
قوامها
##شتري
نفو
الجرح
ينقذ
المفرج
ينتهى
مشروعها
تتوجه
للجبهة
الشراري
يشتري
##راجه
بانتخابات
##غلول
##ذرع
##84
ويترك
مينا
كوبنها
والهجوم
المصروفات
بأية
مثلي
إرهابيين
بحسن
المقررات
راسخة
آملا
الهجومي
اوائل
الطليعة
تفاؤله
##غاة
الإمدادات
المئوية
بوريس
وزنه
توصف
المجتمعين
##واتها
لتفريق
تغني
المضاربة
للنجاح
##أسمال
##ظافر
حيثيات
##واى
تعلمت
##كاي
فقه
لمواقف
##بادلات
##تهنئة
##خفاف
##ياك
التدفق
فسن
لسماع
سعدون
حافظت
وشؤون
المتسل
المشاهير
المناعي
اسب
وبالتأكيد
الظالم
##السيوم
##وائيا
يحث
مقرن
وابراهيم
##حيلا
عنوانه
تهرب
عاب
اندماج
الخارجى
##بندنت
##هانات
##نتال
ثوب
##تياري
بجر
للرا
الصمد
##قصير
حريصا
فظ
هربا
بالسب
##طفلة
والتوعية
مصف
والتحكم
اطباء
ويكيليكس
بتصرف
هيومن
##طرى
والروح
الأقاليم
يستلزم
فالك
حائط
الرصد
وبني
المصيرية
وسمير
خريف
شرطا
الشيكات
ضجة
أسرتها
للمكتب
متحركة
##87
متسل
ادوار
لايف
مشبوهة
لمسؤول
جغرافية
##دات
تعرضهم
حديدية
للاوراق
بركلات
أنفس
الفوزان
لمحطة
##هودة
والوقت
سأت
##رحم
الضالة
رجع
ومنتجات
الاطمئنان
قادتها
متمس
الدموع
لإيقاف
نادال
##خرجات
والشرقية
إفراز
ودفن
ميتشل
الشائكة
##قاعة
عمير
حليب
والكم
الوعد
##وتوف
وسكان
الخازن
ارى
ذياب
##82
المجاني
لاجتماع
والكلام
المعب
مجتمعاتنا
##كماء
##لوس
وأسس
سترا
مراقبين
خفية
والسوري
قضائيا
والممثل
قدوة
وإدخال
##av
ومصدر
وسنة
مؤثر
ربوع
والرجال
يرتدون
خلص
يدرسون
مضر
المليارات
لتبلغ
رشوة
##قيح
بجريدة
تفعله
الانسجام
هائلا
سيؤثر
عمدت
##نينا
استثمر
أعلنه
يخفي
يكف
لمعظم
##ضه
الطماطم
قتالية
تويني
للديمقراطية
هويتها
بالدستور
القبيل
اتجهت
الزن
تراوح
تسجيلها
قوبل
الدوي
المران
##جيان
بحزم
لأسرة
احتمالية
صالون
بمعالجة
1434
لعبها
وقرار
السمعة
لثورة
ابها
##الجتها
دبابة
منفردة
والدا
لاستلام
أضرارا
رفسنجاني
الرصيد
المي
وبدوره
380
##ستطيع
##وقفة
بالالتزام
لمونديال
فجوة
لحرية
انذار
حسنين
يؤسس
الخالدية
صبيحة
##جلسات
صلات
##ندوة
اوقف
حفيد
سعوديا
إسحاق
يصرخ
وعجز
باقتراح
##فيكا
١٢
##قتصر
##جهزتها
للاشتباه
كيت
اجتاحت
##شاه
149
مقرات
لالت
الصن
ورائ
##يجو
المتزوج
يرتكز
والتخلص
اختطف
ارتفاعه
شبابية
الجرائد
لمؤسسات
وفج
وخلف
والأخلاق
1939
اضرار
موظفة
الغرامة
الجينات
يسفر
اسوأ
أمريكيين
##بتك
الراية
##نانير
أثنى
تمكنه
ستاندرد
أسرى
المنسوبة
##رالات
بلاعب
##كاكين
أسرهم
بالحفاظ
الرياضات
##شاركات
الليلية
ويرفع
لأفراد
شيك
ستؤدي
بالضغط
##غراب
محمل
##ضيء
والاستثمارات
سكاي
اصدقاء
الجذور
ومبلغ
##جاوي
الميكانيكية
نحصل
برهان
المعزول
رشد
شقيقته
الإبلاغ
الكيلو
خصخصة
القتلة
##ركزة
العازمى
كيلي
ماف
بالإرهاب
وديع
والعن
الاغتيالات
لأسر
بالضفة
يباع
للبل
لبنانيا
##يكل
والملابس
معاك
لحرب
القادرين
##تني
والتليفزيون
##يراث
استثماراتها
صدره
حارب
لخطر
بالسرعة
##قيبا
##هدايا
متابعات
إحلال
إطلاقها
معتدلة
##احبه
يتفوق
غالبيتهم
والارت
دفعات
صكوك
للتيار
##ساق
دلالات
##حدار
والفرنسي
##يهم
لنمو
المغني
##لائم
العمومي
الانفلات
وتعطيل
والفوضى
العائدين
رافقت
##مري
عناصره
مستواها
تدارك
جلس
##مكانات
شعاع
نجمه
##اطي
الحديدة
محلا
##وابل
إنتر
الأئمة
تحسنا
موطن
القذائف
لاستخدامها
اجمع
منعه
كذ
##يفان
مهر
خطى
المتخذة
الحريرى
يتغمد
##حرج
علشان
لكلية
##وغل
ساكن
البولندية
##واض
المنكوبة
استشارة
والأداء
والبعد
سياسته
الاغلبية
كاث
القريات
أحداثه
هارون
لتوحيد
الحلويات
ديفوار
احتياطيات
##خفضا
بالمرأة
وحاليا
فرضية
معرفته
وشارع
قبوله
رأفت
اندلع
والعين
وتأثيرها
##اثة
قوافل
الحبل
المحمية
الفرس
وأسرته
انسحبت
##روبا
بمؤ
وانح
المعلقة
٢٠١٣
تؤخذ
الزيادات
للتكنولوجيا
كرر
انهى
المسيلة
تكو
مكلف
روبرتو
شابه
وأنشطة
الرهب
مدنى
التمهيدي
تناف
جلعاد
الباشا
سيفت
والبيئية
جمالية
الحرير
الاوروبيين
مرموقة
التمرين
منطقي
لحياة
الاعلاميين
ضيافة
فاعلا
إخضاع
باختلاف
##غالات
وترفض
##بيريا
مشجع
بأشكال
الملونة
الغزيرة
##ction
نقدر
يتزوج
ألقي
يتعاون
لصرف
التأخر
لقوة
##خصصين
البيزن
شروطا
والفي
##ادتكم
الرحب
##صروا
التشكي
لاتسيو
##ضرة
##عدا
خطته
واستقر
وخطة
إياب
الأخلاقي
ألقاب
التقي
الخميني
للأر
1300
##حتل
تحث
يسرق
المتحدثين
إشعار
راقية
أنيس
##ارسيا
الأغراض
اطلعت
الناصري
لطبيعة
ومهم
ومعهد
تعدى
اجتاز
شتاين
##قتان
هويات
##قاتلين
وصحة
سني
##باحية
المحصلة
الساسة
شقير
استطاعوا
يؤمنون
أهميته
اثرها
شاهدا
ريفي
المبرر
خت
أسف
##هلاوي
اقتراع
البروت
صحتها
يكثر
عائلتها
تحويله
أقبل
المصل
الاغذية
شرقية
تحريرها
##فرات
يهمنا
النظريات
الآدم
ويتهم
التزاما
رياضيا
##ورنتينا
##خري
المزدوج
حافل
عبدالغني
وأمان
انتشارها
إشكالية
بالاف
اعتقلوا
بمكافحة
وهيئات
اليمامة
باذن
البورصات
وكبيرة
واعتقل
الأخيرين
قومي
##ديز
للسكن
ساويرس
التعداد
جورد
الجبير
كالآ
انتقام
وتصوير
وتصرف
تحكي
مصلح
ريش
البروفسور
تضررت
##ساه
تحالفات
كرمت
التمتع
الفص
يحظ
طقوس
جمادى
غابة
التماس
لإتمام
الحزبين
جاكرتا
لاكثر
كانتا
تستوجب
وعماد
الغابة
وتناولت
##يلته
وحملت
بتسديدة
سيئا
بهجت
فبعض
العابرة
لفرانس
##اريز
كبيرين
والأبحاث
لبي
الالي
معسكره
اباد
قبط
مكرر
##تيشية
الحسكة
لنشاط
##افح
850
رامى
وظيفية
دوت
متجاوز
معتوق
الحوت
ابنائه
تضطر
ساس
وأخذت
الليزر
الأمريكيون
الأثاث
##غون
الوباء
ليخ
عوائق
##ثيان
##ذوق
وغرب
ونفت
وهت
الصفا
بوابات
المكرمه
للجان
الازدهار
يتيم
نشكر
##هميش
فروا
الخناق
الكثيف
أميركيين
##عاونه
##ذمر
يترجم
والعمليات
الصدفة
تفرضها
خالف
كادي
والانفتاح
يتب
قاتلة
##جتين
أيرلندا
المته
ينصب
الرفيعة
تداخل
##انشستر
الدؤوب
##اريج
شمالية
##81
العقاقير
##اعياتها
عودتها
للحي
النفي
وتراث
الغنائي
أسأل
واننا
تعاملت
بالبرنامج
تشابه
غذاء
##درز
اداري
الاميركيون
يبذلها
الليالي
##مسيس
بإدخال
أوبرا
##وائه
التسلح
وبأس
رمض
وسيقوم
عاصي
منفردا
بخل
##عدادي
المكي
تنادي
الغربى
وليلة
لتزويد
الموروث
الترابط
##خطار
اجتهاد
الاستفزاز
الاضواء
##تمى
السقا
فتفت
سوقا
الفيزيا
تدخلا
مكتملة
لتقليل
الرع
اعتبارها
يسيء
حافلات
المؤسسين
تجهيزات
الأمناء
والمدرسة
معاناتهم
##صبع
بريق
أجنحة
وواجبات
والوقاية
موسما
للاسف
وسيطر
##قتك
##شرعية
دولتين
وسئل
##ختها
انشط
يتجاهل
محددا
أوسكار
الاجت
##بدعين
لفرنسا
بالاط
السلطنة
مغايرة
والما
##كميلية
لعناصر
وتلا
أوصل
الخارجة
والمتهم
للتداول
حينا
ابلاغ
والحماية
وتتكون
إجابات
العرو
المستد
رامسفيلد
الصيادلة
##كتسب
لعبد
الاثنان
ابرام
الحنين
##بديل
لعائلة
##زكية
ويرأس
الديبلوماسية
للترويج
احسن
لينا
آمنا
المذهبية
الهدر
قسوة
يراهن
##شاءات
هاربا
كمس
للإفراج
ميدو
##نتو
مستوطنات
بقول
123
عنوانها
صافى
##هيرة
الصحراوى
وموظفي
يتخلى
الطيارين
فصلا
أنجزت
##حايل
الشرطي
إيس
اجد
##يداد
عزوف
إدانته
وزاري
الملقاة
جورنال
العيوب
فريقهم
والرب
لرس
البينية
وعزز
صممت
طوابق
منخفضا
##وزو
اقرأ
بفوزها
للخدمة
##اربات
استفسارات
نظمه
##خططات
صوتية
للعاصمة
بتشغيل
زغلول
متفوق
إنشائها
تقابل
سفيرة
هواء
والتشريعات
ومحافظة
مكى
لمقابلة
وصعوبة
يقطن
ومدارس
وأغلب
##درالية
كيما
واجراء
وللمرة
دبا
بإنجاز
الكرب
تخفي
قبلة
جبارة
لاهاي
فراس
##كملت
##وجا
الرمي
والجماعة
صفاء
##غمة
التطوع
##زاني
هاجس
زهران
معيش
للمشروعات
محلى
##كابالا
بإمكانية
الإقليمى
والاستماع
أنشأت
نوافذ
احتياجاتها
لسيطرة
الزند
##ذابح
ينادي
أقرا
الاياب
وبار
والجهاد
مولر
انتزع
##كتاتور
كوف
المرخصة
##اثان
جاءوا
بوقت
الجوهرية
وانعدام
الدهشة
أرق
ويحدث
سحبت
بالحقوق
ايراني
يلف
إكسب
المتواضع
مدمرة
##لتان
يملكه
دييغو
تجذب
وبرز
نجوى
مسؤولياتها
صواب
##يرته
للأهلى
والثقافات
يلتفت
والتفتيش
الكلوي
التكييف
وشعبه
##باو
انتساب
كنوع
عظيما
ندد
لمحاكمة
بقيم
بالهجوم
وفضل
لمجتمع
##لفيا
انقضاء
عري
##قصي
##كافآت
واعتزاز
قسمين
بمنزل
لتوجيهات
مفعول
##ستو
بإصابات
لانقاذ
التكفير
فرضها
الاستوائية
المصم
الفئران
مؤلمة
خلو
لمواطني
الرادي
باغتيال
تقريب
لإمارة
الجنون
ارييل
البنين
فقيرة
تحولات
لإش
خزان
##رضه
تضا
الارادة
نهب
الارتباك
الكاب
والحوا
سلال
سلالة
الجلي
##ركا
والمدرب
ينذر
مرفق
##طحب
تمضي
تحتاجه
الروبوت
متحدثة
لحام
السمراء
الادي
أدبي
لوحدة
غيتس
باللعب
بورز
السيناتور
اليسارية
بحى
ثياب
النزاهة
البك
بيكر
مواقعها
إلحاقية
أحاول
إحصائيات
مجم
المفاعل
يطلبون
الدوائية
يتأخر
ولأنه
بادرت
##قصر
تنهي
تعليمه
خرائط
بالمؤسسة
عضويتها
فأي
##وهام
للإناث
اجتياح
معتقد
قضوا
وأعاد
يصنف
ينفى
ادعاءات
ارتباطا
عزيزة
عرس
##nik
المغنية
التايلان
للاستماع
ويواصل
استضافتها
التأليف
النسوية
وألف
المصاحب
طابعا
طيور
بذلها
مضامين
والانتقال
الادعاءات
محيى
الامان
القولون
وتوقيع
محارب
لوبيز
##وفينيا
وتفيد
شاهده
##شادات
##الونيا
للأسواق
خلي
الحرفية
فكما
التخريب
والرسوم
فوات
قررنا
الخشبية
صيني
##كسى
تباد
وقضت
والاجراءات
رحلاتها
إحصاءات
##لمانيين
بألوان
والنشاط
مخازن
صديقا
122
وفوز
والسير
وإل
وشبكة
##طبة
لأجهزة
##جيريا
والسويد
وافادت
1944
1936
المصورة
والتشريعية
انفراد
للتحرك
للموافقة
سيص
صوتي
احالة
بالتوجه
اليتيم
مهددا
أشكر
فالا
المتمردون
تاريخنا
بكاملها
مفلح
مختبرات
كورونا
البابطين
وإر
يعنيه
ركود
التجهيز
الفك
موه
##ائله
المتحرك
##غش
غزيرة
خارجه
العاطفي
ستعرض
الانش
تبديل
ودرس
باردة
اياد
ولجان
##واجهات
##بسة
ليو
الانقل
مستغربا
الذعر
يتف
الناخبون
حجما
لطفى
الاستعمال
الإحصائية
مكشوفة
تنال
البركة
لإحداث
المعتدل
دفاعه
كنائس
##لاي
استثماري
تحركت
محلها
تبعث
##ادلفيا
الأسبانى
اللوجستية
##pt
##قطعت
والخمسين
وتوثيق
حصان
خافيير
واليس
ولهم
تاون
##ity
بتجربة
عكاظ
وتكليف
والساد
اصدق
لتك
المقاوم
تصدرت
البهجة
واصبحت
##قاحات
اعتبارات
تقصد
تند
##هايمر
الدامية
لاستثمار
المبرم
والمساعدات
الاستراتيجيات
انهار
لفرق
##هتار
##ارقات
يدري
بخطة
القطعة
1951
بولتون
والصد
خامس
##لاوى
##يجار
##ادتهم
غاليا
##اريال
لنقابة
نشوء
##ريتريا
نيكول
والعام
الصارمة
الودي
بأحكام
ديارهم
انجلترا
بمسا
والأهداف
مضيق
بتقنية
خيرت
وعبدالرحمن
بحتة
الانتحاري
يؤيدون
معينا
الجهادية
الهاشم
تملكها
##طابق
##راثيم
وضعا
ورئيسة
بإيجاد
اللقاح
وبالا
330
خاس
والمكت
والحركات
##زيغية
وحسام
قالها
وتكثيف
##طورة
ومساهم
##ac
والتجديد
التحويلات
للاستشارات
##اهو
السياسيون
لرؤساء
وتوعية
مهني
ويعطي
##bc
بشان
اقتناع
احتضان
لتل
المصحف
مشاكلهم
اربعين
بحائل
##شابه
قيادتنا
1943
المسيحيون
صنا
المدخنين
هزت
##غيز
بالحرب
وواحد
متوقفة
بصدق
##جندة
وكلف
غناء
##باتات
خاصية
إضعاف
الحجاز
الدوار
اللائق
غلو
ماهية
المزاج
بصناعة
الزيوت
اليقظة
##فجرات
والمانيا
الصليبية
البيطرية
عراقيا
##غولا
اوكرانيا
المعبد
##ئصال
وتفاصيل
وباريس
يتبنى
كمب
##خاذه
الهواة
يخشون
اضعاف
المحققة
والمساندة
والترويج
املاك
طائفي
وأسرهم
عدوى
##فتحة
بالمه
بترشيح
إحصائية
للظروف
بنظر
ظهوره
لاختبار
الملم
##ناص
##طاة
وانهم
تأخرت
والانتخابات
بنقطة
1930
159
الفضة
متطور
واستعمال
فيراري
لمبدأ
هاف
المتواضعة
بسداد
صفراء
مفاده
يتحدد
يتك
وخارجه
##لاقى
النازي
##ليكوبتر
ويأخذ
جاس
##وباما
لفرقة
اشتهرت
غوت
تستجيب
ويساهم
ومؤسساتها
ميسرة
آسيوي
القرآنية
ابتعاد
بشرى
مرحلتين
نوكيا
مثيرا
امتلك
معنويا
التشيك
##بعين
أمنها
التكافل
انتاجها
البسطاء
دبل
اللافتات
الفنيين
##بعاث
هارف
امتنع
الحديدي
السرايا
لتدخل
بمياه
منتجة
إخبارية
موعده
العلني
المعتمرين
وتأمل
بالتوقيع
طلبها
يمتلكها
للشخص
##رار
بمعلومات
المهيري
##وقائع
نيت
##وجو
تحري
ساو
يعمد
عجزت
والنفط
بالجملة
وستقوم
مبي
وعام
فرانسيس
حصاد
لسيارات
##ماسرة
الجابري
تقترح
واستقبال
وللأ
الحوي
والمشاعر
محايل
والمنتج
عزلة
المذيعة
علاقاته
الافتراضي
كشمير
مستن
فصيلة
##خلاق
يوصل
والمشروبات
انطباعا
بفرنسا
مناقشته
صميم
تفقدية
الانحراف
الساخن
ذكاء
محايدة
لاغ
الحقد
محكم
##اطس
خريج
الأرضي
المتألق
الكاميروني
عجوز
تؤسس
الاجيال
##نيطرة
وجماعة
تشتهر
عميقا
دينهم
هضبة
جزئية
##كتلة
يشدد
الزوجات
عقله
المخدر
لاستقطاب
الإنكليزية
إسناد
##يفو
##كونات
الشان
وأحدث
والكفاءة
بالخصوص
تعزيزات
مسئولون
كوي
الغيار
فريقين
للتلفزيون
وتأهل
ستتخذ
الهيكلية
##وغوسلافيا
لواقع
بألا
لتدعيم
عينا
والحا
منحهم
ينشد
تسارع
الابراهيم
واثنين
بالأسواق
بهجوم
##ليته
الضنية
شنتها
وسيادة
يقدموا
الرؤوس
الوسائط
أمهات
عبدالملك
والرق
زخ
الكاز
رافعا
بشع
أواصر
وبحلول
لضحايا
050
بالار
##تيحت
##ولتين
حاولنا
نشط
ولاشك
وتنقل
الدماغية
##قلوب
الاستراتيج
القلاف
البقية
##حدود
وضغط
وأكثرها
يوزع
وتقرير
##جاس
تفاؤل
اختبارا
الأسمدة
للانسحاب
برمجة
يطمئن
المراسم
يمسك
##وكوفيتش
ألحان
قراراتها
الفاعلين
رستم
انص
ومحافظات
تواجدهم
وبيعها
زرا
السوائل
الإلهية
ببراعة
الراديو
الشرعيين
##اثية
بخروج
كالديرون
المنتسبين
مستحقاتهم
##ss
المضبوطات
غريمه
للشراء
لدن
إضافيا
وافد
بلب
للبحر
الأوليمبى
ترج
دريم
البرك
السوفييتي
عاك
لشروط
لأمراض
للسلع
ليفي
الخمسية
والمعلمين
يستطيعوا
بتفاصيل
##كسسوارات
##قبا
شيكابالا
صياغ
الغاش
ميرزا
مستحيلة
رهينة
الزهراء
الفحيحيل
مجدل
نهارا
##خرات
والممارسات
بالقطيف
المؤرخين
المكافحة
قان
بسلاح
بأسوان
##سما
بالدعوة
وبنات
th
الحسبان
##يمس
والرجل
موهب
هاتفه
##سكرا
القاها
الاولوية
##نو
تواجهه
بترتيب
استثنائيا
##جزئة
أدين
سامسونج
بمنطق
التقينا
والوثائق
قداس
الأقدام
يعم
الاسماك
بتعليق
مستثمرين
##واش
للتغلب
للوفد
فقرا
##برها
لحدوث
الهير
##شلت
الأوسكار
##شرط
والطائفية
المعيشي
خيري
أكياس
موفاز
##واهري
وزملا
ليبي
تستعيد
المطيرى
ويمنع
الغرامات
وأسعار
والفنانين
##جعة
##ونيسية
والحاجة
##داسية
بعبارة
##كورا
دعمت
##ue
بالبحيرة
أرن
الطائر
المرموقة
##ورم
مؤتمره
وفتحت
أنطونيو
عائض
##وضية
المنظر
الحوسني
##روشة
ادري
متبادلة
تستأنف
السرير
الحشود
يستقر
بصمات
جاهزي
##ردان
اكون
عالقة
فرو
الشياطين
أدركت
##نته
سموحة
سقوطه
لعملائها
لأح
أصيل
انضمامه
تدرج
شهده
المفارقة
معتمدا
##تابات
وحو
الكشفية
الحفريات
مرآة
التعس
خوا
رهان
للمرض
أتاح
النفسى
روحي
تروج
##اعس
يقنع
##للة
##راليا
##تارية
يعيشه
العراقيل
يستثمر
مواجهتها
الباص
##وارت
مصباح
أعدها
شكا
صدفة
برغبة
##ياغو
الحيدر
كوكبة
مته
##ديا
##if
##ئنة
ابان
والتكامل
تستبعد
دراسي
العيب
##قتله
##رجوع
الإنشائية
السوء
3500
مدرج
##حلان
بإجراءات
للأمين
بأكبر
برود
ولكم
تراعي
##غلى
تحتاجها
واختار
الخمسينيات
وماليزيا
تراف
##تيادية
وبمجرد
المعونة
اضافت
##شيونال
##غتراب
تشدد
##utnik
##ؤى
والحال
التطوعية
لناحية
بالكأس
الانطباع
يتوصل
العزيزة
المسيرات
132
استعداداته
بالمباراة
الاصلاحية
صاغ
العمدة
وأمانة
المتعدد
المفرط
##ذون
##فيظة
##شاركون
Sputnik
دخان
الموارنة
اوروبية
##ثمة
وتوضح
البلقان
تمتع
يرحم
تاكسي
إنكار
الغرق
والثورة
استطعنا
حيويا
نخرج
وأحب
وحقيقة
خدمته
استشارى
الإنتخابات
وأننا
والإسكندرية
بالتأ
الصحراوي
ماله
جرا
يملأ
ويقف
بكلفة
رأوا
##سيمات
الجنازة
الكتابات
يفعلون
المفدى
##ضافر
بمباراة
جنوبية
حضرة
تشيني
ومحطة
جوهان
أسمنت
ويعاني
للكيلو
والآليات
لتقدم
الأنسب
##راكية
للعمالة
المولودية
عشوائي
الشلهوب
وبول
والبحرية
ببرامج
بادرة
انفسنا
##بكستان
FI
وجذب
ثورات
عارمة
مستغلا
##غبته
خصوم
عمود
##سمات
إقليمي
أفعل
ادم
طرب
واستد
ادلى
البرازي
1940
مزدوجة
الاط
الحاخ
لأهالي
العصيان
##ادنا
تكف
عارضة
مشايخ
تستخدمها
مستهلك
ونور
عصير
١١
بالواقع
الهوة
##ابيح
تنتقد
الوكلاء
تريده
نعيد
المسببة
كوبي
##ابله
تى
ينشأ
مقاله
نشأة
وبيروت
أوج
خضعت
فبين
##وزارات
المعتدلة
##art
شفاء
والأمل
صوفيا
حالا
مشاعل
بحثه
فاص
ذروتها
وخسارة
ألغت
ياسمين
ساوث
يشترك
محادث
شركتي
اصحابها
والفرص
وترأس
كخ
تخالف
##جمي
##ونيك
##لاقاة
الناق
##المبور
وإلقاء
وذهبت
اتخذه
التفرقة
الاعلانات
أضع
##زانيا
بدافع
التراكم
بإحالة
ايداع
##ثين
وأشكال
عاملين
فتيل
السنغالي
الثأر
الطول
دعائم
الحبر
##ate
ووزراء
بتقدير
بالإكراه
بالغاز
مضادات
واللقاءات
##لمي
##ديها
مفترق
استنتاج
بنصف
وكفاءة
الكومبيوتر
##عبا
يكفى
البوليس
مذيع
ومعاهد
والقب
لحلف
والنقاش
والمغتربين
مازالوا
ولسنا
وفيت
جهده
القضائى
والكتب
الاغاثة
تنم
تماسك
عيادات
نظريا
ثمارها
أشعل
لعمال
والأدوات
نصه
تجنبا
تدريبه
أحجام
اتخذها
والتجاري
##ضين
الانتداب
وجمعيات
##راكي
السلعة
هيوستن
لأبحاث
وأولياء
الاستد
كرزاي
استكمالا
ديترويت
الزعبي
المفقود
##ساسيات
واليونان
معتقلين
مرجعيون
الأخص
نتساءل
والتاريخية
اخط
يستأنف
الملامح
مراحلها
الصدري
بلسان
الناشر
وتصحيح
المأمول
والبرلمان
وعشرات
تنوعت
##ليتها
##موح
يطول
لدم
مناورة
تنقص
##منيات
مباراتي
بالنا
توطيد
##ارسنال
حديثها
بخسارة
خفضت
يشكر
نبيلة
1941
قفص
##ضارة
الكواليس
الناقلة
الصحاف
لانطلاق
ويقام
##وارض
يعتبرها
ننشر
1938
بوند
للهي
تمتاز
العيادة
الديزل
الورود
غلاف
متمثلة
المبرمة
بالثقافة
##رورا
رحال
نيكي
لجلسة
الخوا
نشب
السفلي
الفاسد
بجز
##ياهم
الفواتير
كاشفا
تهاجم
منحى
حروف
للأوقية
المضرب
ساكنا
تنفع
##طيح
رخيصة
للفائز
الحمى
كاكا
ويتمتع
العباسي
ذك
كواليس
بالسكان
القوقاز
الزلازل
والدراسة
شخصان
الابناء
فأس
##وعوي
اتس
مقنعة
فجاء
يكتفي
قه
تشد
إصر
##ورتيفو
المهر
بايدن
اللحاق
الذوق
الخالي
بتل
نبذ
متينة
كتابها
رويال
فوض
مجموعتين
روى
العوائد
انسي
سعيها
هناء
تاريخا
أدق
ويشعر
وتعويض
المجوهرات
بسياسة
والصراع
المجرم
كوا
ومقد
##ديبية
كلباء
يديرها
##باية
أحضر
مستودع
وغزة
بقيق
غائبة
##ob
##غوا
الرفع
لجمهور
روبين
نذهب
القصار
والسلاح
تعليقه
للقر
المنازعات
المائدة
شنغهاي
الملوثة
دوي
لتحمل
هادئ
وهشام
عبدو
بخبر
زيمبابوي
##انق
مخفر
لاريجاني
للاح
كخط
السجلات
لوطن
نصرة
سعادتها
الدان
##داك
منتقدا
اندريه
أطاحت
##فيرة
سولانا
صدوره
المخطوطات
##طرب
يحصد
الكتاتنى
تسوق
واحتل
تهاني
البرتغالى
##سرت
الاشكال
القداس
تجول
1919
الحبي
يعثر
عاطفية
المحرم
ضغطا
دقيقتين
مريحة
##سلين
انفرد
ومعار
لأكبر
ممتلك
جريم
ملكي
التهرب
العقيل
بروتين
الموف
تعامله
Sy
خبرته
وايطاليا
واللاعبون
الفوسف
لأندية
وفنية
##زينة
لشع
شتوتغارت
الاستقدام
الناعمة
عواض
ولمن
لعقود
والدمار
مضافة
أعده
عشت
يواكب
جروب
تات
يتلق
يدخلون
Ne
الرميثي
تناقل
عصفور
ثمانين
تلب
اعتص
اتفقنا
أروع
دكتوراه
عصب
بتروجيت
وانجاز
محافظتي
الربو
راع
الثنيان
تطرقت
إعجابه
بمكتبه
تفص
تزعم
ارضية
ابنا
الإضاءة
ومساعده
أوقع
##بييض
اجمل
النوافذ
القهر
توالت
معسكرا
ذكري
الحماد
والمسؤولية
البرغوثي
وإثارة
السبق
للزوار
يحصلوا
ومدرب
تزخر
للتفكير
معتبرين
وابنه
حددها
##ياق
ماجدة
ليث
بالليرة
الأبراج
المخرجين
##حادثات
بكيفية
ركي
المجاز
الغري
القرشي
واقعي
تنزل
قتلة
الاهل
##وبون
لعبه
##ريلانكا
أربيل
الأممي
المشتري
بجرم
يبني
ندرة
إحداهما
تقييد
الجمعان
ونريد
أعدتها
الأنبياء
رابح
الخارطة
##وظيفة
ثقتهم
يتوافر
##وليسترول
جلوس
المختطف
المعدلات
الحضرى
الجارديان
الشويخ
دما
##بيعتها
وكيلا
الحرج
ويعزز
##رخاء
إقفال
وجعله
نقلوا
كوشنير
بطلبات
الايدز
والتشجيع
##قدمين
وفروع
بمجموع
أسماك
##اموس
للبلدية
2022
بفصل
لافي
مناش
سيحضر
بوينغ
الأسبوعين
ماتت
ومسؤولين
لإظهار
المعترف
العشائر
بالإعلان
المتجهة
الزام
##لاقته
كبريات
للأمراض
وضعهم
المفتشين
أطنان
سفا
لحماس
كوارث
مخدرة
ذاه
الأنسجة
##قمشة
المضمار
أقرأ
فعليه
##ماير
العساف
للإدلاء
لمجلة
للإبداع
اللاسلكية
صراعا
مماثلا
للمشاهد
تخلت
##خرين
غرا
عظمة
الدراجة
مسئولة
المميزين
وجرحى
الحضانة
ساهموا
كندي
اللؤلؤ
سكني
وتنظم
المعدلة
الهدافين
يراجع
وإبراز
سيسمح
يشك
سيتوجه
دوران
بظروف
نرجو
أحقية
قطارات
##لاين
وسويسرا
تمركز
أنكم
نيمار
تتخلى
##يلار
##رتك
مساره
محصول
##جرز
حجي
أوصت
بخمس
ووفد
للتحالف
جرد
نسيان
##خوا
أملك
الإعارة
قصائده
الكعبة
ليقدم
والترا
يمارسها
أقامته
البخاري
توغل
المزروعة
المهجر
بجهد
##اجا
حمله
بوتو
والنسيج
وصدي
فكم
بالانتقال
تركوا
##خرجين
الليرة
لإلقاء
سيمثل
تاف
وترميم
المحركات
مقترحا
بالمواد
ادوارد
أوكل
مران
للوقت
تنضم
##فعين
وغرفة
ومقاومة
استحق
رجعة
الانعقاد
الألياف
غوا
الإصدارات
هوم
ويغ
ألغى
لقاءاته
معضلة
##يسيا
للأرض
أكاديمي
خف
لزراعة
لتهدئة
المفيدة
اصطح
الموص
##اندا
احتض
متواجد
لإصابة
مؤيدة
يتعاملون
للقاعدة
ترمب
##ويان
بمشاريع
وتؤ
المعتمدين
الفخري
بلم
ليبقى
استئجار
استخلاص
النقاشات
سمعته
هاربين
والدتي
التنوير
##ريطم
أتا
سنكون
الكفاية
الفلاحة
بالمسا
ووافقت
المتوج
بوزيد
بالنقاط
الاسكتلندي
والمحيط
وجهد
وجدي
نهض
الكتروني
القسط
فاصل
كارلو
هاجموا
والبلدات
تطول
وتطبيقات
ماركوس
للتوسع
وتعامل
منزلي
##وغة
##قفي
##وريون
الهاوية
النظير
تكتسب
والأدوية
شباكه
الإبداعي
وخيمة
والشروط
صبرا
الميزة
البيضاوي
##ابوليس
ريكاردو
##اهرا
وأحداث
والتكن
والخل
بالثقة
فقرر
عضويته
الهادف
بجمعية
وتزداد
والمصالحة
الشف
نقصا
أقامها
كفاءات
ويهدد
عاتقها
فحين
العباس
##اعه
والممتلكات
لسباق
ويعني
بالعب
يصادف
الخفية
تديرها
بسيارته
بوتيرة
##جنيد
ومعهم
حرصها
جونغ
بمبنى
خبز
يتقدمهم
متاجر
121
لمشروعات
##عدي
للجانب
مهمات
السليمان
شجاع
علوش
قلبها
مصنوعة
التقطت
وحشية
رأسي
تدخلات
ملاء
بلادي
باعتبارهم
هوف
##يروان
الوط
تنفيذي
##صلاحي
الإقراض
المؤهلات
المزعوم
الجسدي
##يلتون
اثينا
الإسماعيلي
بالتركيز
##شيك
لرغبة
لفرع
يصاحب
وباعت
أراضيهم
جئت
عسل
##كثار
وتألق
لأمريكا
لاقى
سيكونون
باللاعبين
وفجأة
يتزايد
وزيري
سياحيا
ريان
وتفاعل
تنحصر
واستعراض
مادام
صرخة
للمسجد
لتعريف
لربط
بالكم
للأهلي
أقدمت
لتبرير
الاصطناعية
مهرب
البئر
##بورج
##ساسا
وآمال
التكليف
الجاز
بيعه
سنتر
جرب
فييرا
وبفارق
مقابر
تلقيت
##99
والشعور
أعطي
ووصفه
##ائرين
البنفس
الميزانيات
الكشافة
اقتصادها
المفتاح
المحاسب
منفرد
وامرأة
تحلق
مغبة
منصف
##ساي
وأهالي
المرخص
وكرم
والمجالس
أوق
الامس
غيابيا
انحراف
تيلي
للتوجه
بتوجيهات
الانبار
سارعت
نموذجية
براغ
سارك
وتريد
الاعتبارات
والجمعة
نلعب
##our
بوردو
وجارى
أسد
تتماشى
العزيزية
الزبون
سطر
##يدجان
وتواجد
##pp
موكله
وتعلي
الجامعيين
المتنازع
لرياضة
##قده
الأمامي
وقعوا
الزعابي
اعتزاله
ملب
الجبرية
وراث
يجدر
بيه
##كوفيتش
البدري
يرحل
للتأهل
##ضوع
يتنازل
مفصلة
لوقت
بتدخل
وقتنا
وشم
##زييف
فاخ
لقصف
والمقاييس
تدريجي
شرايين
فالب
ويتولى
سيدنا
الخضروات
مجلسى
للدورى
الساحقة
للجزائر
لأحمد
شكله
للقبول
بالوقود
##قلعة
واستشهد
##كسار
معتدل
دولى
مسرحا
ونقلها
وجهتها
والمراقبة
تستقطب
الاحتياطات
##52
الإنمائية
يلد
وأسامة
جرأة
بالإح
الغربة
تعددت
نرحب
##اصصة
أكيد
أنتج
الحزبي
بسؤال
البيعة
والتمسك
مدرجات
مستشهد
##يتار
المتلاحقة
ضعفا
النقب
##هره
والتوتر
شروق
4401
عريقة
بعدن
وحاج
للغرفة
صرفها
مرتبات
مولودية
المليار
حفيظة
صرخ
وجرائم
المزاعم
افترض
غزال
الأقارب
كيه
انعقدت
وعالميا
وبدعم
حربي
الشيك
قلبك
ثابتا
أحلى
الأرمن
وتوزيعها
##برعين
لأسهم
وايت
ستطرح
اليابانيين
##سمه
للطرق
يبدي
حزين
الأخت
أرجع
هوت
تجريها
##ريبه
السهر
ستون
اللاجئ
ينتمى
قوس
الاقسام
الامكانيات
بكلمات
##حاما
##شيز
ويعيد
واكتشاف
##رواح
دامية
ملخص
زويل
سنية
بأوراق
خصومه
بمجال
ونق
تساند
وتنص
##طائهم
والمحاسبة
يمتاز
##روباص
##فعالات
علاجية
هندسية
فاسو
##لالي
##كاتبة
يتركز
البروست
يحالف
محاولا
اقتراحا
##راوة
إحضار
أيده
لجمهورية
وكبير
حصريا
سؤاله
وجوههم
المغناطيسي
الضوئي
لايع
يخطر
عرفنا
دالاس
صياد
##هدى
والقائم
مزود
رئاسي
##ثنى
يعطل
##تهرب
##ارسون
تكمل
والكأس
مكل
المشتريات
نتابع
فلسطينى
يشر
ويذهب
والعامة
تأكيدات
استقرارا
المكلفين
رز
والنهضة
ثانوي
تخفض
وطنا
الشرسة
راحت
العمير
أبين
جسمه
جماهيريا
يتسن
للأق
وأحلام
والإنسان
اوسلو
وكريم
ويفضل
تسلط
تان
يوا
يبشر
مصعب
تعاونا
##هيبة
والقيادات
وسلاح
خطب
صورها
بباريس
طوابير
وتبني
مضمار
رمال
أهدافا
وطالما
إجراؤها
رقب
عجب
ويسمح
غيرنا
الطالباني
والمرور
الخراب
كوميدي
للمساهمين
التباين
نخيل
يال
الهتافات
الأنث
الخبيثة
تلقاه
مخزن
وألحان
يضحك
##ذله
التضحيات
يتلقون
ببدء
يبادر
الكالسيوم
##حاولات
مفاصل
المردود
بالجانب
الترابية
باليمن
نيف
##وول
جانيرو
ارج
##خوت
تضارب
بتجديد
متزام
الأونروا
للمف
##ونيوم
للاستقرار
طوائف
طم
فود
لإت
##طاول
فإلى
فائق
والمفكرين
لقول
مباد
لجماهير
اليساري
لتولى
نشير
البلتاجى
##جازان
تكاتف
تعلمون
اتفقوا
كتل
##نافسين
واط
المبني
الآجلة
وقراها
التلميذ
فاسدة
##عايا
والخير
ايها
والحكومات
وسيارة
تقليدي
تسريح
إثراء
بحمل
التعافي
مراه
وشبكات
##ناهية
الارتفاعات
##ak
تحطمت
المحاذية
بإخلاء
الاستقلالية
##قصود
مجاور
النزعة
##راقيين
وتقوية
المستفيدة
الخلط
وساهمت
للاف
تجده
لمقاومة
##زاوى
شلاش
تفاوت
أيق
##ING
الفطرية
ببلدية
الشلل
عنيفا
مستخدما
اشبيلية
ركائز
الجافة
##نتينية
للمحاسبات
##عق
مملك
ويحدد
الصالون
للقناة
بمدارس
طابور
مزدوج
ماركت
لتسويق
بالزواج
الحازمي
الكواكب
##واحيها
شحنات
ميلاده
فتكون
المبدئي
عبث
##يضة
غن
الاحصاءات
مقتدى
المعطاء
اوضحت
بالدقهلية
ألحق
الافطار
تعقيد
توزعت
المدرج
الهدم
##كاملا
أرملة
الرومانسية
الفارغة
بؤرة
لأمر
تجلس
##رفون
Al
مساع
يحتوى
تفسر
##igh
بالتعاقد
بالفرنسية
فربما
وغاب
نهى
مناض
مبيعاتها
تساؤل
##داش
رصاصة
بالإسلام
العواقب
وعقدت
الماليزي
الطبخ
ديمتري
العواصف
والرابعة
متماس
غلام
بتقدم
##راقبين
بالمنا
ميداني
لواشنطن
شتاء
قاطعا
##ينكو
رحيم
العضلة
الحجار
معاينة
تكريت
والخص
ميست
والربع
وكفر
بالسفر
ناع
إنزال
والمجتمعات
##شاهد
الادوار
أدخلت
البلطجة
بالخطأ
شعري
##اندماج
##بوس
المتمر
##حيلي
العلاجات
اللامركزية
##وزية
للكنيسة
تمكنا
تحال
##ابرين
الفنزويلي
شاهدنا
وكأننا
بحدوث
الحجي
بروم
الفقهاء
عقر
اشراك
والسلطات
والوحدات
فوجئوا
مشجعة
هوندا
وقدرتها
تنظيمه
وهبط
##قاتلون
تتوزع
لحجم
التبريد
فداء
شيماء
زائد
وموظف
ارتبطت
ودافع
منتقد
بمحاكمة
والأص
اعتادت
الالغ
النادر
تعرفت
فعالياتها
ضربا
يدفعون
عيتاني
فرار
##لاندو
سق
لوت
##تد
اختيارات
لكلا
توفرت
اجمالية
والأسلحة
##خدمي
مجاني
أمرها
محظورة
محض
لإخ
بفت
اوسع
عصرنا
وترتيب
الاسماعيلي
الدموي
الفارسية
##خدع
تجمعوا
دوغ
وتدفع
التخصصية
##غولي
يبقي
بضربة
والموافقة
لمصلحته
مهتمة
خيطان
##قبت
إرهابيا
لتجهيز
شاسعة
البضاعة
كلب
العلوية
##ألوفة
غريغ
والسبعين
تبع
المطالبات
ومهمة
##لاجات
والشم
##رفق
بالقضايا
والمشروعات
والقى
الأمعاء
المناظرة
ترين
واقتراح
الآفاق
ودفعت
بالأسعار
دوليين
وتجاهل
##برنا
وعيد
وحرمان
الفلاحية
أنتجت
رفاقه
يتوج
ونبه
##ساته
بالشباب
أضف
##تهان
صلاحياته
أشخاصا
الجوهري
مطلبا
تجيب
أحيا
المجيدة
إحت
تترجم
نعترف
الانتحارية
##اعقة
ستر
شعورا
##سومة
وقضى
خلقت
والاعتراف
البيرو
##جمالا
##واتر
وحرصه
تتكلم
شيعية
لمتطلبات
البقر
الكليب
المنتخبة
والطبية
نظريات
فتقول
اشترط
المكف
بعنف
##ort
وانخفضت
قريطم
ينجز
رأسمالها
سيادته
ونرى
قادته
لطيف
##خداع
لبط
الخارجين
وتعميق
هشاشة
##وحي
قيادتها
نسير
شحادة
مزي
وتمسك
يابانية
مراكش
التمد
عندئذ
فيورنتينا
جثته
يستحيل
المماطلة
بسيارات
المنهجية
لارتباط
التعمير
الإعصار
وتمنح
للأجهزة
المنيع
##وصيف
للامت
محصورة
##ائقين
حادثا
ناقلة
##بروا
للفروسية
تفرغ
لكتابة
بقص
بانشاء
أعمق
هدر
ملحمة
الصليبخات
مؤجلة
الحائز
والبعيد
ومتنوعة
قابس
استعان
أطفالهم
موجز
الانقسامات
هون
ستساعد
تأكل
بالجهاز
العاديين
بالنتائج
تجتاح
النسيم
أقص
أحيان
الراغبة
رفعوا
عائلاتهم
اطلاقا
سوسي
متحد
الأعشاب
سيتولى
حفرة
والاعتصام
جريئة
اصرار
##وادر
الجرأة
والقادسية
st
إليزابيث
سيحاول
وحضره
ويتر
##وائض
لمطالبهم
أحضان
الخصوم
##طريرك
عظمى
وتفوق
##يرلندية
لمراكز
##ازيا
بالفائدة
الاسبوعية
بالاعتماد
اسل
##قوبي
وزعم
ردي
والمباني
الشخصى
مبررة
ووزيرة
رسمت
مجلسي
لتؤكد
وجون
المؤيد
بالمطار
توجها
بالاعتبار
##جليس
يستكمل
أيدى
للخارجية
واستنادا
المكس
وبينها
الترويكا
بيز
عوف
يتمسك
##تيها
برأسمال
امتل
مكروه
العشق
##ويلح
استمرارا
مجمعات
وقدرت
وللح
للتعذيب
ووكالات
لوجد
شهيرة
##وكايين
تبقي
حققنا
غادروا
##فيس
تنجز
وسح
ألقاه
عزبة
دستوريا
أطر
للروم
اغنية
ندعم
السدود
إصابتها
عصور
صعدت
##شيل
أتلتيكو
التسديد
مدراء
أرباب
ويمنح
والقواعد
للصواريخ
نما
##اريكا
معاوية
باستضافة
ووضعه
يوش
الفيلسوف
قالب
يلتحق
المحامية
الانظار
##زاوي
ادوات
سواها
عزف
عزمه
وضعته
والمشا
طاقته
انبعاثات
الدبلوم
والحروب
الناصرية
باستطاع
بسمة
سيرته
لتدمير
اسأل
مقاييس
مشرفا
حكا
ظواهر
شعرا
السبعين
للعهد
بالحركة
مواقعهم
تتلخص
مراحله
##شاك
إقليميا
قبولا
العلنية
يخطئ
هارفارد
##رسخ
اصر
وقراءة
الأصالة
اسلامي
للقضايا
الحلوى
التبا
للقب
الباكست
بطولته
فقبل
بأجهزة
سينعكس
فكريا
والنقابات
بيتنا
##قاص
المتفر
اتفقا
وفعلا
مفصلا
ينسجم
التطهير
مهاراتهم
غوار
##ok
والنز
والأزمات
بالقوات
يعجز
جنون
تمكنهم
كونهم
الإسهام
بحذر
يتبق
الثمينة
البافاري
باند
مشتريات
والحزن
موقوف
##عجة
وواجه
تقويض
##طائها
##عفر
المشاهدة
لإس
مجيد
أقراص
##ضاه
الطلق
التوقيف
##الص
##تيمة
##زبائن
للمحامين
وإنها
الرخص
هود
##فاط
كيلوج
عوده
والأهلية
لمحكمة
فدانا
البرتغالية
مستحيلا
بمراكز
وانطلقت
التدريجي
وفحص
بمحطة
الدهر
##ليمي
يستقل
تلاها
بفعالية
دارة
##ينين
المتص
بقواعد
رصيف
العنكبوتية
للقرآن
##تياد
معجب
والظلم
المهددة
يعيق
سابا
والعلاقة
الجاذبية
الإقتصاد
استحالة
إعت
اتخذته
إبادة
بالثورة
الفاسدين
##كتين
أبابا
للقتال
الخمر
وفصل
مأوى
المنقولة
إسكان
##لفا
بالاقت
واستطاعت
منسقة
بإم
يضعون
الانطلاقة
الاخذ
بالمؤ
سكاف
##فانيا
تنورة
ويخوض
##54
فالكل
استعداداتها
الخمسينات
المدفوعات
رفاق
نزلت
اقامتها
خططا
ملائ
بانتخاب
بازل
ستساهم
سراحهم
الهضمي
موافقتها
فيلادلفيا
ومشاركت
##صابى
طفولته
النمطية
شائع
للألعاب
أستاذا
المقولة
بالتفصيل
غيار
##جوا
العبدلي
أسمائهم
##ant
بخص
إجلاء
احتسب
مسؤولياته
التمويلية
إطارات
القوا
الطاهرة
مندوبي
لتوظيف
اولويات
يلتسين
لأية
القصب
إياد
الشاذلى
ودرجة
بالمرتبة
الاستنتاج
متتاليتين
شهوان
##ركه
الأمريكان
وأبرزها
الإعلانية
للأطباء
مدفوعة
وحرق
تنبع
بجرائم
سينمائ
الإبراهيمي
تحديدها
حدوثها
وكتابة
##كالات
نايل
للأفلام
المخاطرة
توقيعها
##يمى
أمامي
أمها
أجلت
اتلتيكو
الابتسامة
أتوبيس
##نافذ
ابتسامة
جذريا
سادسا
وكا
##زري
التشيكية
باليد
أسقف
ملموسا
##وبكر
مسدود
##وثق
التسرب
بمسجد
ليحل
أمريكيا
الاشتراطات
أودت
واز
الاشتراكات
الأغنياء
مجملها
ووصول
السويلم
استحواذ
وتقنيات
وعدة
##وشات
استقلالها
واستقرارها
وتختلف
الشري
لتعود
وعصام
الدرد
والملك
كاثرين
مجازر
المصطفى
سلاحه
تجمهر
دبلوماسيون
دعاء
الاخبارية
الرملية
والمض
بروسيا
استيقظ
وشهادة
درام
فضلت
دخلا
والانسانية
تشتري
للشفاء
والأحياء
وسورية
صبيا
فرغم
##اتيلا
كوالالمبور
السوم
والبرنامج
ومحب
وتنوع
وازداد
رول
##ركبة
وصفة
ابراز
حبل
النصيحة
بالكاد
تبادر
متهمة
##هايو
يفكرون
الديكور
الإث
##فاخر
لتقوم
ضاعت
والكون
القناعة
وعزا
الهاربين
وماجد
وممارسات
عذر
قاضيا
بروس
جبار
أخذنا
بالقدر
الوداد
سلميا
وبنفس
يعانيه
##جابت
##ربص
الرامي
##غيلا
##طيق
العنزى
بالامكان
ومبارك
والتنموية
الاختراق
الخطف
المختل
الالتقاء
بنمو
الحيطة
الإبادة
##كوس
بكفالة
انجازه
##دونيسية
إقدام
وتحدد
ارن
وأرى
ونح
فاصلة
والمشت
الأمواج
والاستيلاء
القويعية
بوصة
والمدر
أسبوعية
ساخن
خاتم
وتتهم
##انديز
ظريف
واك
سيقود
حفظهما
والمواصفات
هيكلية
خدام
بمجمع
ستجمع
الريادي
فائز
حققوا
للتنديد
تكلفته
وينظر
والصعوبات
بلندن
للتحقق
وترجم
الصيدليات
اللاه
الخاس
قرشا
##all
حشيش
اشتمل
##عاملات
تفاجأ
نشاطاتها
##أوا
حولهم
حثيثة
##شأة
النفاذ
أعدته
نتكلم
مستعدا
اقبالا
للأراضي
وبشأن
متزايدا
بشعبية
قاموس
الحلبة
اعتقالات
المحامون
الإمساك
تواف
فولكس
بالرس
المنتظرة
##تلقى
يهزم
دأب
محالة
المصاريف
والعادات
##غوي
استبد
##ثرية
بدرية
تماشيا
سيوفر
وجدان
واللبنانيين
وتواجه
التجريبي
اعترفوا
غين
الإجازات
يلقيها
ببطلان
محافظا
توجهه
##بريالية
التشيلي
فحتى
مجن
والزوار
جيوش
فحوصات
بنائه
طيبا
الدعي
مرارة
اسكندر
الأساسيين
بتعويض
البريدية
ثغرات
الصريح
وتأخر
##ثاء
الغدد
باحة
تقلبات
بناية
الإسبانى
والبلدية
بتشجيع
بالحرس
لتشكل
للحيلولة
اتحادات
والضفة
استعمالها
تضطلع
فوقها
المعاينة
سيلت
الضبعان
بالسيا
وخطف
يخف
سكول
وسد
وسبعة
المشايخ
##ياتنا
ولندن
وجيش
النائبين
[...]
